{
  "!": 0,
  "\"": 1,
  "\"hey,</w>": 2,
  "\"i'm</w>": 3,
  "\"i</w>": 4,
  "\"oh,</w>": 5,
  "\"okay,</w>": 6,
  "\"what</w>": 7,
  "\"you</w>": 8,
  "$": 9,
  "$100</w>": 10,
  "%": 11,
  "%.</w>": 12,
  "%</w>": 13,
  "&": 14,
  "'": 15,
  "'</w>": 16,
  "'cause</w>": 17,
  "'d</w>": 18,
  "'ll</w>": 19,
  "'s</w>": 20,
  "'t</w>": 21,
  "'ve</w>": 22,
  "+": 23,
  ",": 24,
  ",000</w>": 25,
  ",</w>": 26,
  "-": 27,
  "--</w>": 28,
  "-</w>": 29,
  "-and</w>": 30,
  "-because</w>": 31,
  "-but</w>": 32,
  "-for</w>": 33,
  "-h": 34,
  "-how</w>": 35,
  "-i'm</w>": 36,
  "-i</w>": 37,
  "-in</w>": 38,
  "-is</w>": 39,
  "-it's</w>": 40,
  "-it</w>": 41,
  "-mm-hmm.</w>": 42,
  "-no,</w>": 43,
  "-no.</w>": 44,
  "-okay.</w>": 45,
  "-old</w>": 46,
  "-right.</w>": 47,
  "-right?</w>": 48,
  "-so,</w>": 49,
  "-so</w>": 50,
  "-that's</w>": 51,
  "-that</w>": 52,
  "-the</w>": 53,
  "-time</w>": 54,
  "-to-": 55,
  "-we</w>": 56,
  "-what</w>": 57,
  "-which</w>": 58,
  "-yeah,</w>": 59,
  "-yeah.</w>": 60,
  "-yeah?</w>": 61,
  "-year-old</w>": 62,
  "-yes.</w>": 63,
  "-you</w>": 64,
  ".": 65,
  ".\"</w>": 66,
  "...": 67,
  "...</w>": 68,
  ".5</w>": 69,
  ".</w>": 70,
  ".m.</w>": 71,
  "/": 72,
  "0": 73,
  "0%</w>": 74,
  "0,000</w>": 75,
  "0.</w>": 76,
  "000</w>": 77,
  "00</w>": 78,
  "0</w>": 79,
  "0s</w>": 80,
  "1": 81,
  "1%</w>": 82,
  "1,000</w>": 83,
  "1.": 84,
  "1.5</w>": 85,
  "10": 86,
  "10%</w>": 87,
  "10,000</w>": 88,
  "10-": 89,
  "100": 90,
  "100%.</w>": 91,
  "100%</w>": 92,
  "1000</w>": 93,
  "100</w>": 94,
  "10</w>": 95,
  "11</w>": 96,
  "12": 97,
  "12%</w>": 98,
  "120</w>": 99,
  "12</w>": 100,
  "12th</w>": 101,
  "13</w>": 102,
  "14</w>": 103,
  "15%</w>": 104,
  "150</w>": 105,
  "15</w>": 106,
  "16</w>": 107,
  "17</w>": 108,
  "18</w>": 109,
  "19": 110,
  "19</w>": 111,
  "1</w>": 112,
  "2": 113,
  "2%</w>": 114,
  "2,000</w>": 115,
  "20": 116,
  "20%</w>": 117,
  "20-year-old</w>": 118,
  "200": 119,
  "2000</w>": 120,
  "2008</w>": 121,
  "2009</w>": 122,
  "200</w>": 123,
  "201": 124,
  "2012</w>": 125,
  "2015</w>": 126,
  "2016</w>": 127,
  "2019</w>": 128,
  "202": 129,
  "2020</w>": 130,
  "2026</w>": 131,
  "20</w>": 132,
  "20s</w>": 133,
  "21</w>": 134,
  "22</w>": 135,
  "24</w>": 136,
  "25": 137,
  "25%</w>": 138,
  "250</w>": 139,
  "25</w>": 140,
  "26</w>": 141,
  "2</w>": 142,
  "3": 143,
  "3%</w>": 144,
  "30": 145,
  "30%</w>": 146,
  "300</w>": 147,
  "30</w>": 148,
  "35</w>": 149,
  "3</w>": 150,
  "4": 151,
  "4%</w>": 152,
  "40%</w>": 153,
  "400</w>": 154,
  "40</w>": 155,
  "45</w>": 156,
  "4</w>": 157,
  "5": 158,
  "5%</w>": 159,
  "5,000</w>": 160,
  "50": 161,
  "50%</w>": 162,
  "50,000</w>": 163,
  "5000</w>": 164,
  "500</w>": 165,
  "50</w>": 166,
  "5</w>": 167,
  "6": 168,
  "60%</w>": 169,
  "600</w>": 170,
  "60</w>": 171,
  "6</w>": 172,
  "7": 173,
  "70%</w>": 174,
  "70</w>": 175,
  "75</w>": 176,
  "7</w>": 177,
  "8": 178,
  "8%</w>": 179,
  "80%</w>": 180,
  "800</w>": 181,
  "80</w>": 182,
  "80s</w>": 183,
  "8</w>": 184,
  "9": 185,
  "9%</w>": 186,
  "90%</w>": 187,
  "90</w>": 188,
  "90s</w>": 189,
  "95</w>": 190,
  "9</w>": 191,
  ":": 192,
  ":00</w>": 193,
  ";": 194,
  "</w>": 195,
  "?\"</w>": 196,
  "?</w>": 197,
  "a": 198,
  "a,</w>": 199,
  "a...</w>": 200,
  "a.</w>": 201,
  "a</w>": 202,
  "ab": 203,
  "ab</w>": 204,
  "abilities</w>": 205,
  "ability</w>": 206,
  "able.</w>": 207,
  "able</w>": 208,
  "ably</w>": 209,
  "abo": 210,
  "about": 211,
  "about,</w>": 212,
  "about.</w>": 213,
  "about</w>": 214,
  "above</w>": 215,
  "absolu": 216,
  "absolutely.</w>": 217,
  "absolutely</w>": 218,
  "ac": 219,
  "aca": 220,
  "acade": 221,
  "academy</w>": 222,
  "acc": 223,
  "accep": 224,
  "accept</w>": 225,
  "acces": 226,
  "access</w>": 227,
  "according</w>": 228,
  "accoun": 229,
  "account</w>": 230,
  "accur": 231,
  "ace</w>": 232,
  "ach": 233,
  "ach</w>": 234,
  "ached</w>": 235,
  "achi": 236,
  "achiev": 237,
  "achieve</w>": 238,
  "aching</w>": 239,
  "ack": 240,
  "ack</w>": 241,
  "acking</w>": 242,
  "acqu": 243,
  "across</w>": 244,
  "act</w>": 245,
  "acted</w>": 246,
  "acting</w>": 247,
  "action</w>": 248,
  "actions</w>": 249,
  "activ": 250,
  "active</w>": 251,
  "actively</w>": 252,
  "activity</w>": 253,
  "actor</w>": 254,
  "actors</w>": 255,
  "acts</w>": 256,
  "actu": 257,
  "actual</w>": 258,
  "actually,</w>": 259,
  "actually</w>": 260,
  "acy</w>": 261,
  "ad": 262,
  "ad</w>": 263,
  "ada</w>": 264,
  "adap": 265,
  "add": 266,
  "add</w>": 267,
  "added</w>": 268,
  "addic": 269,
  "adding</w>": 270,
  "address</w>": 271,
  "adop": 272,
  "ads</w>": 273,
  "adv": 274,
  "advant": 275,
  "advantage</w>": 276,
  "adverti": 277,
  "advertising</w>": 278,
  "advice</w>": 279,
  "af": 280,
  "aff": 281,
  "affec": 282,
  "affect</w>": 283,
  "afflu": 284,
  "afford": 285,
  "afford</w>": 286,
  "afric": 287,
  "after</w>": 288,
  "ag": 289,
  "ag</w>": 290,
  "again": 291,
  "again,</w>": 292,
  "again</w>": 293,
  "against</w>": 294,
  "age": 295,
  "age</w>": 296,
  "aged</w>": 297,
  "agency</w>": 298,
  "agent</w>": 299,
  "agents</w>": 300,
  "ages</w>": 301,
  "aggre": 302,
  "aggreg": 303,
  "agi</w>": 304,
  "aging</w>": 305,
  "ago,</w>": 306,
  "ago.</w>": 307,
  "ago</w>": 308,
  "agr": 309,
  "agre": 310,
  "agree</w>": 311,
  "ahead</w>": 312,
  "ai": 313,
  "ai,</w>": 314,
  "ai.</w>": 315,
  "ai</w>": 316,
  "ail": 317,
  "ain": 318,
  "ain</w>": 319,
  "air": 320,
  "air</w>": 321,
  "airport</w>": 322,
  "ais</w>": 323,
  "al": 324,
  "al,</w>": 325,
  "al.</w>": 326,
  "al</w>": 327,
  "alco": 328,
  "alcoho": 329,
  "alcohol</w>": 330,
  "alg": 331,
  "algorith": 332,
  "algorithm</w>": 333,
  "alia</w>": 334,
  "aling</w>": 335,
  "ality</w>": 336,
  "alization</w>": 337,
  "alized</w>": 338,
  "all": 339,
  "all,</w>": 340,
  "all.</w>": 341,
  "all</w>": 342,
  "alloc": 343,
  "allow</w>": 344,
  "allowed</w>": 345,
  "allowing</w>": 346,
  "allows</w>": 347,
  "alls</w>": 348,
  "ally,</w>": 349,
  "ally.</w>": 350,
  "ally</w>": 351,
  "almost</w>": 352,
  "alone</w>": 353,
  "along</w>": 354,
  "already</w>": 355,
  "als</w>": 356,
  "also,</w>": 357,
  "also.</w>": 358,
  "also</w>": 359,
  "alter": 360,
  "alth": 361,
  "always</w>": 362,
  "am": 363,
  "am.</w>": 364,
  "am</w>": 365,
  "ama": 366,
  "amaz": 367,
  "amazing</w>": 368,
  "amazon</w>": 369,
  "amb": 370,
  "ament": 371,
  "americ": 372,
  "america,</w>": 373,
  "america</w>": 374,
  "american</w>": 375,
  "aming</w>": 376,
  "among</w>": 377,
  "amongst</w>": 378,
  "amoun": 379,
  "amount</w>": 380,
  "ams</w>": 381,
  "an": 382,
  "an,</w>": 383,
  "an.</w>": 384,
  "an</w>": 385,
  "anal": 386,
  "analy": 387,
  "anc": 388,
  "ance</w>": 389,
  "anced</w>": 390,
  "ances</w>": 391,
  "ancing</w>": 392,
  "ancy</w>": 393,
  "and": 394,
  "and,</w>": 395,
  "and...</w>": 396,
  "and.</w>": 397,
  "and</w>": 398,
  "anding</w>": 399,
  "ands</w>": 400,
  "ang": 401,
  "ange": 402,
  "ange</w>": 403,
  "angel</w>": 404,
  "angle</w>": 405,
  "anim": 406,
  "animal</w>": 407,
  "another</w>": 408,
  "ans": 409,
  "ans</w>": 410,
  "answ": 411,
  "answer</w>": 412,
  "answers</w>": 413,
  "ant": 414,
  "ant.</w>": 415,
  "ant</w>": 416,
  "anthrop": 417,
  "anti": 418,
  "antly</w>": 419,
  "ants</w>": 420,
  "any": 421,
  "any</w>": 422,
  "anybody</w>": 423,
  "anymore</w>": 424,
  "anyone</w>": 425,
  "anything.</w>": 426,
  "anything</w>": 427,
  "anyway</w>": 428,
  "anywhere</w>": 429,
  "ap": 430,
  "ap</w>": 431,
  "apart</w>": 432,
  "app": 433,
  "app</w>": 434,
  "appar": 435,
  "appe": 436,
  "apple</w>": 437,
  "appli": 438,
  "applic": 439,
  "application</w>": 440,
  "applications</w>": 441,
  "applied</w>": 442,
  "apply</w>": 443,
  "appreci": 444,
  "appro": 445,
  "approach</w>": 446,
  "apps</w>": 447,
  "ar": 448,
  "ar</w>": 449,
  "ara</w>": 450,
  "arbit": 451,
  "arbitr": 452,
  "arch": 453,
  "architec": 454,
  "ard</w>": 455,
  "ards</w>": 456,
  "are": 457,
  "are,</w>": 458,
  "are.</w>": 459,
  "are</w>": 460,
  "area</w>": 461,
  "areas</w>": 462,
  "ared</w>": 463,
  "aren't</w>": 464,
  "arg": 465,
  "argue</w>": 466,
  "argument</w>": 467,
  "ari": 468,
  "arian</w>": 469,
  "aries</w>": 470,
  "arly</w>": 471,
  "aroun": 472,
  "around</w>": 473,
  "arr": 474,
  "arrive</w>": 475,
  "art</w>": 476,
  "arti": 477,
  "artic": 478,
  "artificial</w>": 479,
  "artist</w>": 480,
  "ary</w>": 481,
  "as": 482,
  "as</w>": 483,
  "ase</w>": 484,
  "ash": 485,
  "ash</w>": 486,
  "asia</w>": 487,
  "ask</w>": 488,
  "asked</w>": 489,
  "asking</w>": 490,
  "aspec": 491,
  "aspect</w>": 492,
  "aspir": 493,
  "aspiration</w>": 494,
  "asse": 495,
  "asset</w>": 496,
  "assets</w>": 497,
  "assist": 498,
  "assistant</w>": 499,
  "associ": 500,
  "assum": 501,
  "assume</w>": 502,
  "assuming</w>": 503,
  "ast</w>": 504,
  "at": 505,
  "at,</w>": 506,
  "at</w>": 507,
  "ata</w>": 508,
  "ate": 509,
  "ate</w>": 510,
  "ated</w>": 511,
  "ately,</w>": 512,
  "ately</w>": 513,
  "ates</w>": 514,
  "ath": 515,
  "atic</w>": 516,
  "atically</w>": 517,
  "ating</w>": 518,
  "ation": 519,
  "ation,</w>": 520,
  "ation.</w>": 521,
  "ation</w>": 522,
  "ational</w>": 523,
  "ations</w>": 524,
  "ativ": 525,
  "ative</w>": 526,
  "atively</w>": 527,
  "ator</w>": 528,
  "ators</w>": 529,
  "atory</w>": 530,
  "ats</w>": 531,
  "att": 532,
  "attack</w>": 533,
  "attem": 534,
  "attemp": 535,
  "attention</w>": 536,
  "attr": 537,
  "ature</w>": 538,
  "au": 539,
  "audi": 540,
  "audience</w>": 541,
  "aug": 542,
  "augh": 543,
  "austr": 544,
  "australia</w>": 545,
  "auth": 546,
  "authent": 547,
  "authentic</w>": 548,
  "auto</w>": 549,
  "autom": 550,
  "automatically</w>": 551,
  "av": 552,
  "avail": 553,
  "available</w>": 554,
  "average</w>": 555,
  "avoid</w>": 556,
  "aw": 557,
  "awar": 558,
  "aware</w>": 559,
  "awareness</w>": 560,
  "away.</w>": 561,
  "away</w>": 562,
  "awesom": 563,
  "ay": 564,
  "ay</w>": 565,
  "az": 566,
  "b": 567,
  "b2": 568,
  "b</w>": 569,
  "ba": 570,
  "ba</w>": 571,
  "bab": 572,
  "baby</w>": 573,
  "bac": 574,
  "back": 575,
  "back.</w>": 576,
  "back</w>": 577,
  "background</w>": 578,
  "bacter": 579,
  "bacteria</w>": 580,
  "bad": 581,
  "bad</w>": 582,
  "bal": 583,
  "balance</w>": 584,
  "ball</w>": 585,
  "ban": 586,
  "ban</w>": 587,
  "band</w>": 588,
  "bangal": 589,
  "bangalore</w>": 590,
  "bank</w>": 591,
  "banking</w>": 592,
  "banks</w>": 593,
  "bar": 594,
  "bar</w>": 595,
  "bars</w>": 596,
  "bas": 597,
  "base</w>": 598,
  "based</w>": 599,
  "basic</w>": 600,
  "basically</w>": 601,
  "basis</w>": 602,
  "bat": 603,
  "batt": 604,
  "batteries</w>": 605,
  "battery</w>": 606,
  "be": 607,
  "be,</w>": 608,
  "be.</w>": 609,
  "be</w>": 610,
  "beat</w>": 611,
  "beaut": 612,
  "beauti": 613,
  "beautiful</w>": 614,
  "beauty,</w>": 615,
  "beauty</w>": 616,
  "beca": 617,
  "became</w>": 618,
  "because,</w>": 619,
  "because</w>": 620,
  "become</w>": 621,
  "becomes</w>": 622,
  "becoming</w>": 623,
  "bed</w>": 624,
  "been</w>": 625,
  "beer</w>": 626,
  "befor": 627,
  "before</w>": 628,
  "beg": 629,
  "began</w>": 630,
  "begin</w>": 631,
  "beginning</w>": 632,
  "beh": 633,
  "beha": 634,
  "behavi": 635,
  "behavior</w>": 636,
  "behind</w>": 637,
  "being</w>": 638,
  "beings</w>": 639,
  "bel": 640,
  "beli": 641,
  "belie": 642,
  "belief</w>": 643,
  "believ": 644,
  "believe</w>": 645,
  "believed</w>": 646,
  "below</w>": 647,
  "ben": 648,
  "bene": 649,
  "benef": 650,
  "benefit</w>": 651,
  "benefits</w>": 652,
  "ber": 653,
  "ber,</w>": 654,
  "ber</w>": 655,
  "bers</w>": 656,
  "best</w>": 657,
  "bet</w>": 658,
  "bett": 659,
  "better.</w>": 660,
  "better</w>": 661,
  "betwe": 662,
  "between</w>": 663,
  "beverage</w>": 664,
  "beyond</w>": 665,
  "bi": 666,
  "bi</w>": 667,
  "big": 668,
  "big</w>": 669,
  "bigger</w>": 670,
  "biggest</w>": 671,
  "bility</w>": 672,
  "bill</w>": 673,
  "billi": 674,
  "billion": 675,
  "billion</w>": 676,
  "billionai": 677,
  "billions</w>": 678,
  "bing</w>": 679,
  "bio": 680,
  "biocon</w>": 681,
  "bir": 682,
  "birth</w>": 683,
  "bit": 684,
  "bit</w>": 685,
  "bl": 686,
  "bla": 687,
  "black</w>": 688,
  "ble.</w>": 689,
  "ble</w>": 690,
  "bloc": 691,
  "blood</w>": 692,
  "blue</w>": 693,
  "bly</w>": 694,
  "bo": 695,
  "boar": 696,
  "board</w>": 697,
  "bod": 698,
  "body's</w>": 699,
  "body</w>": 700,
  "boll": 701,
  "bollywood</w>": 702,
  "bom": 703,
  "bomb": 704,
  "bombay</w>": 705,
  "bon</w>": 706,
  "boo": 707,
  "book</w>": 708,
  "books</w>": 709,
  "boom</w>": 710,
  "bor": 711,
  "boring</w>": 712,
  "born</w>": 713,
  "borr": 714,
  "boss</w>": 715,
  "both</w>": 716,
  "bott": 717,
  "bottle</w>": 718,
  "bottles</w>": 719,
  "bottom</w>": 720,
  "bought</w>": 721,
  "box</w>": 722,
  "boy</w>": 723,
  "boys</w>": 724,
  "br": 725,
  "brain": 726,
  "brain</w>": 727,
  "brand": 728,
  "brand,</w>": 729,
  "brand.</w>": 730,
  "brand</w>": 731,
  "brands</w>": 732,
  "bre": 733,
  "brea": 734,
  "break": 735,
  "break</w>": 736,
  "breaking</w>": 737,
  "brew": 738,
  "brewing</w>": 739,
  "bring</w>": 740,
  "bringing</w>": 741,
  "brings</w>": 742,
  "bro": 743,
  "broad": 744,
  "broad</w>": 745,
  "broadly</w>": 746,
  "broken</w>": 747,
  "brother</w>": 748,
  "brothers</w>": 749,
  "brought</w>": 750,
  "bu": 751,
  "bub": 752,
  "bubble</w>": 753,
  "buc": 754,
  "bucks</w>": 755,
  "bud": 756,
  "budget</w>": 757,
  "buil": 758,
  "build</w>": 759,
  "building</w>": 760,
  "built</w>": 761,
  "bul": 762,
  "bun": 763,
  "bunch</w>": 764,
  "bur": 765,
  "burger</w>": 766,
  "bus": 767,
  "bus</w>": 768,
  "business": 769,
  "business,</w>": 770,
  "business.</w>": 771,
  "business</w>": 772,
  "businesses</w>": 773,
  "but,</w>": 774,
  "but...</w>": 775,
  "but</w>": 776,
  "butt": 777,
  "buy": 778,
  "buy</w>": 779,
  "buying</w>": 780,
  "by</w>": 781,
  "c": 782,
  "c</w>": 783,
  "ca": 784,
  "ca</w>": 785,
  "cafe</w>": 786,
  "cal": 787,
  "calcul": 788,
  "call": 789,
  "call</w>": 790,
  "called</w>": 791,
  "calling</w>": 792,
  "calls</w>": 793,
  "cam": 794,
  "came</w>": 795,
  "camer": 796,
  "camera</w>": 797,
  "can": 798,
  "can't</w>": 799,
  "can</w>": 800,
  "canc": 801,
  "cancer</w>": 802,
  "cannot</w>": 803,
  "cap": 804,
  "cap</w>": 805,
  "capability</w>": 806,
  "capac": 807,
  "capacity</w>": 808,
  "capita</w>": 809,
  "capital": 810,
  "capital</w>": 811,
  "capitalism</w>": 812,
  "capitalistic</w>": 813,
  "capture</w>": 814,
  "car": 815,
  "car</w>": 816,
  "carbon</w>": 817,
  "card</w>": 818,
  "care": 819,
  "care.</w>": 820,
  "care</w>": 821,
  "career</w>": 822,
  "carry</w>": 823,
  "cars</w>": 824,
  "cas": 825,
  "case,</w>": 826,
  "case</w>": 827,
  "cases</w>": 828,
  "cash</w>": 829,
  "casual</w>": 830,
  "cat": 831,
  "catch</w>": 832,
  "categ": 833,
  "categor": 834,
  "categories</w>": 835,
  "category</w>": 836,
  "cause</w>": 837,
  "ce": 838,
  "ce</w>": 839,
  "ced</w>": 840,
  "celebr": 841,
  "celebrity</w>": 842,
  "cell": 843,
  "cell</w>": 844,
  "cells</w>": 845,
  "cement</w>": 846,
  "center</w>": 847,
  "centers</w>": 848,
  "centr": 849,
  "central</w>": 850,
  "centur": 851,
  "ceo</w>": 852,
  "cept</w>": 853,
  "cer": 854,
  "certa": 855,
  "certain</w>": 856,
  "certainly</w>": 857,
  "ces</w>": 858,
  "cess": 859,
  "cess</w>": 860,
  "ceter": 861,
  "ch": 862,
  "ch</w>": 863,
  "cha": 864,
  "cha</w>": 865,
  "chain</w>": 866,
  "challeng": 867,
  "challenge</w>": 868,
  "challenges</w>": 869,
  "chan": 870,
  "chance</w>": 871,
  "chang": 872,
  "change": 873,
  "change.</w>": 874,
  "change</w>": 875,
  "changed</w>": 876,
  "changes</w>": 877,
  "changing</w>": 878,
  "channel</w>": 879,
  "channels</w>": 880,
  "char": 881,
  "charac": 882,
  "character</w>": 883,
  "charge</w>": 884,
  "charging</w>": 885,
  "charity</w>": 886,
  "chat": 887,
  "chat</w>": 888,
  "che": 889,
  "chea": 890,
  "cheap</w>": 891,
  "cheaper</w>": 892,
  "chec": 893,
  "check</w>": 894,
  "ched</w>": 895,
  "chef</w>": 896,
  "chem": 897,
  "chemical</w>": 898,
  "chemistry</w>": 899,
  "chen": 900,
  "chennai</w>": 901,
  "ches</w>": 902,
  "chi": 903,
  "chic": 904,
  "chicken</w>": 905,
  "chief</w>": 906,
  "chil": 907,
  "child": 908,
  "child</w>": 909,
  "childhood</w>": 910,
  "childr": 911,
  "children</w>": 912,
  "chin": 913,
  "china,</w>": 914,
  "china</w>": 915,
  "chinese</w>": 916,
  "ching</w>": 917,
  "chip</w>": 918,
  "cho": 919,
  "choice</w>": 920,
  "choices</w>": 921,
  "choo": 922,
  "choose</w>": 923,
  "chr": 924,
  "ci": 925,
  "cially</w>": 926,
  "cies</w>": 927,
  "cin": 928,
  "cinema</w>": 929,
  "cir": 930,
  "cise</w>": 931,
  "cities</w>": 932,
  "city</w>": 933,
  "ck": 934,
  "ck</w>": 935,
  "cl": 936,
  "cla": 937,
  "clas": 938,
  "class": 939,
  "class</w>": 940,
  "classes</w>": 941,
  "cle": 942,
  "cle</w>": 943,
  "clean</w>": 944,
  "clear": 945,
  "clear</w>": 946,
  "clearly</w>": 947,
  "cles</w>": 948,
  "cli": 949,
  "clic": 950,
  "click</w>": 951,
  "clim": 952,
  "climate</w>": 953,
  "clo": 954,
  "close</w>": 955,
  "closed</w>": 956,
  "closer</w>": 957,
  "clothes</w>": 958,
  "cloud</w>": 959,
  "clu": 960,
  "club</w>": 961,
  "co": 962,
  "co-": 963,
  "co-founder</w>": 964,
  "co</w>": 965,
  "cock": 966,
  "cod": 967,
  "code</w>": 968,
  "coding</w>": 969,
  "coffe": 970,
  "coffee</w>": 971,
  "cog": 972,
  "cogn": 973,
  "coin</w>": 974,
  "col": 975,
  "cold</w>": 976,
  "collabor": 977,
  "colle": 978,
  "collec": 979,
  "college</w>": 980,
  "color</w>": 981,
  "com": 982,
  "com</w>": 983,
  "comb": 984,
  "combination</w>": 985,
  "come": 986,
  "come</w>": 987,
  "comes</w>": 988,
  "comfor": 989,
  "comfort</w>": 990,
  "comfortable</w>": 991,
  "coming</w>": 992,
  "comm": 993,
  "comment</w>": 994,
  "comments</w>": 995,
  "commer": 996,
  "commerce</w>": 997,
  "commercial</w>": 998,
  "commit": 999,
  "commod": 1000,
  "commodity</w>": 1001,
  "common</w>": 1002,
  "commun": 1003,
  "communic": 1004,
  "communicate</w>": 1005,
  "communication</w>": 1006,
  "communities</w>": 1007,
  "community</w>": 1008,
  "comp": 1009,
  "compan": 1010,
  "companies,</w>": 1011,
  "companies.</w>": 1012,
  "companies</w>": 1013,
  "company,</w>": 1014,
  "company.</w>": 1015,
  "company</w>": 1016,
  "compar": 1017,
  "compare</w>": 1018,
  "compared</w>": 1019,
  "compe": 1020,
  "compet": 1021,
  "compete</w>": 1022,
  "competing</w>": 1023,
  "competition</w>": 1024,
  "competitive</w>": 1025,
  "compl": 1026,
  "comple": 1027,
  "complete</w>": 1028,
  "completely</w>": 1029,
  "complex</w>": 1030,
  "complic": 1031,
  "complicated</w>": 1032,
  "compon": 1033,
  "component</w>": 1034,
  "components</w>": 1035,
  "compounding</w>": 1036,
  "compu": 1037,
  "compute</w>": 1038,
  "computer</w>": 1039,
  "computers</w>": 1040,
  "con": 1041,
  "concentr": 1042,
  "concep": 1043,
  "concept</w>": 1044,
  "concer": 1045,
  "cond": 1046,
  "conf": 1047,
  "confid": 1048,
  "confidence</w>": 1049,
  "confident</w>": 1050,
  "conflic": 1051,
  "connec": 1052,
  "connect</w>": 1053,
  "connected</w>": 1054,
  "connection</w>": 1055,
  "conscious": 1056,
  "conscious</w>": 1057,
  "consciously</w>": 1058,
  "consi": 1059,
  "consider": 1060,
  "consider</w>": 1061,
  "consist": 1062,
  "consistency</w>": 1063,
  "consistent</w>": 1064,
  "const": 1065,
  "constant</w>": 1066,
  "constantly</w>": 1067,
  "constr": 1068,
  "constrain": 1069,
  "construc": 1070,
  "construction</w>": 1071,
  "consul": 1072,
  "consult": 1073,
  "consum": 1074,
  "consume</w>": 1075,
  "consumer</w>": 1076,
  "consumers</w>": 1077,
  "consuming</w>": 1078,
  "consumption</w>": 1079,
  "cont": 1080,
  "content.</w>": 1081,
  "content</w>": 1082,
  "context</w>": 1083,
  "contin": 1084,
  "continu": 1085,
  "continue</w>": 1086,
  "contr": 1087,
  "contrarian</w>": 1088,
  "contribu": 1089,
  "contro": 1090,
  "control</w>": 1091,
  "conv": 1092,
  "conven": 1093,
  "conver": 1094,
  "convers": 1095,
  "conversation</w>": 1096,
  "conversations</w>": 1097,
  "convert</w>": 1098,
  "conviction</w>": 1099,
  "convinc": 1100,
  "convinced</w>": 1101,
  "coo": 1102,
  "cool": 1103,
  "cool.</w>": 1104,
  "cool</w>": 1105,
  "cop": 1106,
  "copy</w>": 1107,
  "cor": 1108,
  "core</w>": 1109,
  "corpor": 1110,
  "corporate</w>": 1111,
  "correc": 1112,
  "correct</w>": 1113,
  "cost</w>": 1114,
  "costs</w>": 1115,
  "cou": 1116,
  "could</w>": 1117,
  "couldn't</w>": 1118,
  "coun": 1119,
  "counter</w>": 1120,
  "countr": 1121,
  "countries</w>": 1122,
  "country,</w>": 1123,
  "country.</w>": 1124,
  "country</w>": 1125,
  "couple</w>": 1126,
  "cour": 1127,
  "course,</w>": 1128,
  "course</w>": 1129,
  "cover</w>": 1130,
  "covered</w>": 1131,
  "covid</w>": 1132,
  "cr": 1133,
  "cr</w>": 1134,
  "crack</w>": 1135,
  "craf": 1136,
  "craft</w>": 1137,
  "craz": 1138,
  "crazy</w>": 1139,
  "cre": 1140,
  "creat": 1141,
  "create</w>": 1142,
  "created</w>": 1143,
  "creates</w>": 1144,
  "creating</w>": 1145,
  "creation</w>": 1146,
  "creativ": 1147,
  "creative</w>": 1148,
  "creativity</w>": 1149,
  "creator</w>": 1150,
  "creators</w>": 1151,
  "credit</w>": 1152,
  "cri": 1153,
  "cricke": 1154,
  "cricket</w>": 1155,
  "cris": 1156,
  "crit": 1157,
  "critical</w>": 1158,
  "cror": 1159,
  "crore</w>": 1160,
  "crores</w>": 1161,
  "crow": 1162,
  "crowd</w>": 1163,
  "crying</w>": 1164,
  "cryp": 1165,
  "crypto</w>": 1166,
  "cs</w>": 1167,
  "ct</w>": 1168,
  "ction</w>": 1169,
  "cu": 1170,
  "cul": 1171,
  "cultural</w>": 1172,
  "culture</w>": 1173,
  "cum": 1174,
  "cup</w>": 1175,
  "cur": 1176,
  "curio": 1177,
  "curiosity</w>": 1178,
  "curious</w>": 1179,
  "curr": 1180,
  "currency</w>": 1181,
  "current</w>": 1182,
  "currently</w>": 1183,
  "curve</w>": 1184,
  "cust": 1185,
  "custom": 1186,
  "customer</w>": 1187,
  "customers</w>": 1188,
  "cut</w>": 1189,
  "cuz</w>": 1190,
  "cy": 1191,
  "cycle</w>": 1192,
  "cycles</w>": 1193,
  "d": 1194,
  "d,</w>": 1195,
  "d.</w>": 1196,
  "d</w>": 1197,
  "d?</w>": 1198,
  "da": 1199,
  "da</w>": 1200,
  "dad</w>": 1201,
  "daily</w>": 1202,
  "dam": 1203,
  "dance</w>": 1204,
  "dar": 1205,
  "dark</w>": 1206,
  "dat": 1207,
  "data</w>": 1208,
  "date</w>": 1209,
  "dating</w>": 1210,
  "daugh": 1211,
  "daughter</w>": 1212,
  "day": 1213,
  "day,</w>": 1214,
  "day.</w>": 1215,
  "day</w>": 1216,
  "days,</w>": 1217,
  "days</w>": 1218,
  "de": 1219,
  "de</w>": 1220,
  "dea": 1221,
  "dead</w>": 1222,
  "deal</w>": 1223,
  "dealing</w>": 1224,
  "deb": 1225,
  "debate</w>": 1226,
  "debt</w>": 1227,
  "dec": 1228,
  "deca": 1229,
  "decade</w>": 1230,
  "decades</w>": 1231,
  "decent</w>": 1232,
  "deci": 1233,
  "decide</w>": 1234,
  "decided</w>": 1235,
  "decision</w>": 1236,
  "decisions</w>": 1237,
  "ded</w>": 1238,
  "dee": 1239,
  "deep": 1240,
  "deep</w>": 1241,
  "deeper</w>": 1242,
  "deeply</w>": 1243,
  "defic": 1244,
  "defin": 1245,
  "define</w>": 1246,
  "defined</w>": 1247,
  "definit": 1248,
  "definitely</w>": 1249,
  "definition</w>": 1250,
  "degree</w>": 1251,
  "del": 1252,
  "delhi</w>": 1253,
  "deli": 1254,
  "deliver</w>": 1255,
  "delivery</w>": 1256,
  "dem": 1257,
  "demand</w>": 1258,
  "demic</w>": 1259,
  "democr": 1260,
  "democracy</w>": 1261,
  "democrat": 1262,
  "demograph": 1263,
  "demographic</w>": 1264,
  "den": 1265,
  "den</w>": 1266,
  "dep": 1267,
  "depend": 1268,
  "dependent</w>": 1269,
  "depending</w>": 1270,
  "depends</w>": 1271,
  "deplo": 1272,
  "depth</w>": 1273,
  "der": 1274,
  "der</w>": 1275,
  "ders</w>": 1276,
  "des": 1277,
  "des</w>": 1278,
  "descri": 1279,
  "describe</w>": 1280,
  "deser": 1281,
  "desi": 1282,
  "design": 1283,
  "design</w>": 1284,
  "designed</w>": 1285,
  "desire</w>": 1286,
  "dest": 1287,
  "destro": 1288,
  "details</w>": 1289,
  "deter": 1290,
  "dev": 1291,
  "develop": 1292,
  "develop</w>": 1293,
  "developed</w>": 1294,
  "developer</w>": 1295,
  "developers</w>": 1296,
  "developing</w>": 1297,
  "development</w>": 1298,
  "device</w>": 1299,
  "devices</w>": 1300,
  "dge</w>": 1301,
  "di": 1302,
  "di</w>": 1303,
  "dia</w>": 1304,
  "dic": 1305,
  "did</w>": 1306,
  "didn't</w>": 1307,
  "die</w>": 1308,
  "diff": 1309,
  "differ": 1310,
  "difference</w>": 1311,
  "different.</w>": 1312,
  "different</w>": 1313,
  "differenti": 1314,
  "differentiate</w>": 1315,
  "differentiation</w>": 1316,
  "differently</w>": 1317,
  "difficul": 1318,
  "difficult</w>": 1319,
  "dig": 1320,
  "digit": 1321,
  "digital</w>": 1322,
  "din": 1323,
  "ding</w>": 1324,
  "dinner</w>": 1325,
  "direc": 1326,
  "direct</w>": 1327,
  "direction</w>": 1328,
  "directly</w>": 1329,
  "director</w>": 1330,
  "dis": 1331,
  "disa": 1332,
  "disagree</w>": 1333,
  "disap": 1334,
  "disc": 1335,
  "discipl": 1336,
  "disco": 1337,
  "discord</w>": 1338,
  "discoun": 1339,
  "discover</w>": 1340,
  "discovered</w>": 1341,
  "discus": 1342,
  "discussed</w>": 1343,
  "disru": 1344,
  "disrup": 1345,
  "disrupted</w>": 1346,
  "dist": 1347,
  "distinc": 1348,
  "distr": 1349,
  "distribu": 1350,
  "distribution</w>": 1351,
  "dit</w>": 1352,
  "divi": 1353,
  "dle</w>": 1354,
  "dn't</w>": 1355,
  "do": 1356,
  "do,</w>": 1357,
  "do.</w>": 1358,
  "do</w>": 1359,
  "doc": 1360,
  "doctor</w>": 1361,
  "doctors</w>": 1362,
  "docum": 1363,
  "does": 1364,
  "does</w>": 1365,
  "doesn't</w>": 1366,
  "dog</w>": 1367,
  "doing.</w>": 1368,
  "doing</w>": 1369,
  "dollar": 1370,
  "dollar</w>": 1371,
  "dollars</w>": 1372,
  "dom": 1373,
  "dom</w>": 1374,
  "domain</w>": 1375,
  "domest": 1376,
  "domestic</w>": 1377,
  "domin": 1378,
  "don": 1379,
  "don'": 1380,
  "don't</w>": 1381,
  "done.</w>": 1382,
  "done</w>": 1383,
  "door</w>": 1384,
  "dop": 1385,
  "dopamine</w>": 1386,
  "dou": 1387,
  "doub": 1388,
  "double</w>": 1389,
  "down": 1390,
  "down</w>": 1391,
  "dr": 1392,
  "dra": 1393,
  "dram": 1394,
  "dre": 1395,
  "dream</w>": 1396,
  "dress</w>": 1397,
  "dri": 1398,
  "drin": 1399,
  "drink</w>": 1400,
  "drinking</w>": 1401,
  "driv": 1402,
  "drive</w>": 1403,
  "driven</w>": 1404,
  "driver</w>": 1405,
  "drivers</w>": 1406,
  "drives</w>": 1407,
  "driving</w>": 1408,
  "dro": 1409,
  "drop": 1410,
  "drop</w>": 1411,
  "ds</w>": 1412,
  "du": 1413,
  "dub": 1414,
  "dubai</w>": 1415,
  "duc": 1416,
  "dude</w>": 1417,
  "during</w>": 1418,
  "duty</w>": 1419,
  "dy": 1420,
  "dy</w>": 1421,
  "dynam": 1422,
  "e": 1423,
  "e's</w>": 1424,
  "e,</w>": 1425,
  "e-": 1426,
  "e-commerce</w>": 1427,
  "e.</w>": 1428,
  "e</w>": 1429,
  "e?</w>": 1430,
  "ea": 1431,
  "each</w>": 1432,
  "eak</w>": 1433,
  "eal": 1434,
  "ear": 1435,
  "ear</w>": 1436,
  "earli": 1437,
  "earlier</w>": 1438,
  "early</w>": 1439,
  "earn</w>": 1440,
  "earning</w>": 1441,
  "earth</w>": 1442,
  "eas": 1443,
  "eas</w>": 1444,
  "ease</w>": 1445,
  "easi": 1446,
  "easier</w>": 1447,
  "easiest</w>": 1448,
  "easily</w>": 1449,
  "east</w>": 1450,
  "easy</w>": 1451,
  "eat</w>": 1452,
  "eating</w>": 1453,
  "ec": 1454,
  "ece</w>": 1455,
  "eco": 1456,
  "econ": 1457,
  "econom": 1458,
  "economic</w>": 1459,
  "economics</w>": 1460,
  "economy</w>": 1461,
  "ecosystem</w>": 1462,
  "ecu": 1463,
  "ed": 1464,
  "ed,</w>": 1465,
  "ed.</w>": 1466,
  "ed</w>": 1467,
  "educ": 1468,
  "education</w>": 1469,
  "edy</w>": 1470,
  "ef</w>": 1471,
  "eff": 1472,
  "effec": 1473,
  "effect</w>": 1474,
  "effective</w>": 1475,
  "effectively</w>": 1476,
  "effects</w>": 1477,
  "effici": 1478,
  "efficiency</w>": 1479,
  "efficient</w>": 1480,
  "effort</w>": 1481,
  "ego</w>": 1482,
  "eight</w>": 1483,
  "eign</w>": 1484,
  "either</w>": 1485,
  "el": 1486,
  "el</w>": 1487,
  "eld</w>": 1488,
  "ele": 1489,
  "elec": 1490,
  "electr": 1491,
  "electric</w>": 1492,
  "electricity</w>": 1493,
  "electron": 1494,
  "electronics</w>": 1495,
  "element</w>": 1496,
  "elements</w>": 1497,
  "eli": 1498,
  "ell": 1499,
  "ell</w>": 1500,
  "elon</w>": 1501,
  "els</w>": 1502,
  "else": 1503,
  "else.</w>": 1504,
  "else</w>": 1505,
  "ely,</w>": 1506,
  "ely</w>": 1507,
  "em": 1508,
  "email</w>": 1509,
  "ement</w>": 1510,
  "ements</w>": 1511,
  "emer": 1512,
  "emerging</w>": 1513,
  "emis": 1514,
  "emissions</w>": 1515,
  "emo": 1516,
  "emotion": 1517,
  "emotion</w>": 1518,
  "emotional</w>": 1519,
  "emplo": 1520,
  "employe": 1521,
  "employees</w>": 1522,
  "en": 1523,
  "en,</w>": 1524,
  "en.</w>": 1525,
  "en</w>": 1526,
  "enab": 1527,
  "enc": 1528,
  "ence,</w>": 1529,
  "ence.</w>": 1530,
  "ence</w>": 1531,
  "ences</w>": 1532,
  "encies</w>": 1533,
  "encour": 1534,
  "ency</w>": 1535,
  "end": 1536,
  "end,</w>": 1537,
  "end.</w>": 1538,
  "end</w>": 1539,
  "ended</w>": 1540,
  "ending</w>": 1541,
  "ends</w>": 1542,
  "ene": 1543,
  "ener": 1544,
  "energ": 1545,
  "energy</w>": 1546,
  "eness</w>": 1547,
  "eng": 1548,
  "enga": 1549,
  "engage": 1550,
  "engage</w>": 1551,
  "engagement</w>": 1552,
  "engine": 1553,
  "engine</w>": 1554,
  "engineer</w>": 1555,
  "engineering</w>": 1556,
  "engineers</w>": 1557,
  "english</w>": 1558,
  "enjo": 1559,
  "enjoy</w>": 1560,
  "enough": 1561,
  "enough</w>": 1562,
  "ens</w>": 1563,
  "ense</w>": 1564,
  "ent": 1565,
  "ent,</w>": 1566,
  "ent.</w>": 1567,
  "ent</w>": 1568,
  "ental</w>": 1569,
  "entation</w>": 1570,
  "ented</w>": 1571,
  "enter": 1572,
  "enter</w>": 1573,
  "enterprise</w>": 1574,
  "enterta": 1575,
  "entertain": 1576,
  "entertainment</w>": 1577,
  "enti": 1578,
  "ential</w>": 1579,
  "entially</w>": 1580,
  "enting</w>": 1581,
  "ention": 1582,
  "ention</w>": 1583,
  "entire</w>": 1584,
  "entity</w>": 1585,
  "ently.</w>": 1586,
  "ently</w>": 1587,
  "entre": 1588,
  "entrepreneur": 1589,
  "entrepreneur</w>": 1590,
  "entrepreneurs</w>": 1591,
  "entrepreneurship</w>": 1592,
  "entry</w>": 1593,
  "ents,</w>": 1594,
  "ents.</w>": 1595,
  "ents</w>": 1596,
  "environ": 1597,
  "environment</w>": 1598,
  "enz": 1599,
  "enzy": 1600,
  "enzymes</w>": 1601,
  "ep": 1602,
  "ep</w>": 1603,
  "epis": 1604,
  "episode</w>": 1605,
  "equ": 1606,
  "equal</w>": 1607,
  "equity</w>": 1608,
  "equivalent</w>": 1609,
  "er": 1610,
  "er,</w>": 1611,
  "er.</w>": 1612,
  "er</w>": 1613,
  "era</w>": 1614,
  "ere": 1615,
  "ere</w>": 1616,
  "ered</w>": 1617,
  "erence</w>": 1618,
  "erest": 1619,
  "ering</w>": 1620,
  "ers,</w>": 1621,
  "ers.</w>": 1622,
  "ers</w>": 1623,
  "ership</w>": 1624,
  "ery</w>": 1625,
  "es": 1626,
  "es,</w>": 1627,
  "es.</w>": 1628,
  "es</w>": 1629,
  "escap": 1630,
  "ese</w>": 1631,
  "esh</w>": 1632,
  "esom": 1633,
  "especi": 1634,
  "especially</w>": 1635,
  "ess": 1636,
  "ess.</w>": 1637,
  "ess</w>": 1638,
  "essed</w>": 1639,
  "essentially</w>": 1640,
  "ession</w>": 1641,
  "est": 1642,
  "est</w>": 1643,
  "estab": 1644,
  "establish": 1645,
  "established</w>": 1646,
  "estate</w>": 1647,
  "et": 1648,
  "et</w>": 1649,
  "etc</w>": 1650,
  "eth": 1651,
  "eting</w>": 1652,
  "ets</w>": 1653,
  "ety</w>": 1654,
  "eu": 1655,
  "europ": 1656,
  "europe": 1657,
  "europe</w>": 1658,
  "ev": 1659,
  "ev</w>": 1660,
  "eve</w>": 1661,
  "even": 1662,
  "even</w>": 1663,
  "evening</w>": 1664,
  "event</w>": 1665,
  "events</w>": 1666,
  "eventu": 1667,
  "eventually</w>": 1668,
  "ever": 1669,
  "ever</w>": 1670,
  "every": 1671,
  "every</w>": 1672,
  "everybody's</w>": 1673,
  "everybody</w>": 1674,
  "everyone's</w>": 1675,
  "everyone</w>": 1676,
  "everything.</w>": 1677,
  "everything</w>": 1678,
  "everywhere</w>": 1679,
  "evid": 1680,
  "evidence</w>": 1681,
  "evol": 1682,
  "evolution</w>": 1683,
  "evolve</w>": 1684,
  "evolved</w>": 1685,
  "evolving</w>": 1686,
  "ex": 1687,
  "ex</w>": 1688,
  "exact</w>": 1689,
  "exactly.</w>": 1690,
  "exactly</w>": 1691,
  "exam": 1692,
  "examp": 1693,
  "example,</w>": 1694,
  "example.</w>": 1695,
  "example</w>": 1696,
  "examples</w>": 1697,
  "exc": 1698,
  "excep": 1699,
  "exchange</w>": 1700,
  "excited</w>": 1701,
  "exciting</w>": 1702,
  "execu": 1703,
  "exer": 1704,
  "exercise</w>": 1705,
  "exist": 1706,
  "exist</w>": 1707,
  "existing</w>": 1708,
  "exists</w>": 1709,
  "exp": 1710,
  "expec": 1711,
  "expect</w>": 1712,
  "expen": 1713,
  "expensive</w>": 1714,
  "exper": 1715,
  "experi": 1716,
  "experienc": 1717,
  "experience,</w>": 1718,
  "experience</w>": 1719,
  "experienced</w>": 1720,
  "experiences</w>": 1721,
  "experim": 1722,
  "experiment</w>": 1723,
  "expert</w>": 1724,
  "experti": 1725,
  "expertise</w>": 1726,
  "expl": 1727,
  "explain": 1728,
  "explain</w>": 1729,
  "expon": 1730,
  "export</w>": 1731,
  "exposure</w>": 1732,
  "ext": 1733,
  "extent</w>": 1734,
  "extern": 1735,
  "external</w>": 1736,
  "extra": 1737,
  "extra</w>": 1738,
  "extrapo": 1739,
  "extrapolate</w>": 1740,
  "extre": 1741,
  "extreme</w>": 1742,
  "extremely</w>": 1743,
  "eye</w>": 1744,
  "eyes</w>": 1745,
  "f": 1746,
  "f</w>": 1747,
  "fa": 1748,
  "fabr": 1749,
  "fabric</w>": 1750,
  "fac": 1751,
  "face": 1752,
  "face</w>": 1753,
  "facebook</w>": 1754,
  "fact": 1755,
  "fact,</w>": 1756,
  "fact</w>": 1757,
  "factor</w>": 1758,
  "factors</w>": 1759,
  "factory</w>": 1760,
  "fail": 1761,
  "fail</w>": 1762,
  "failed</w>": 1763,
  "failure</w>": 1764,
  "fair": 1765,
  "fair</w>": 1766,
  "fairly</w>": 1767,
  "fake</w>": 1768,
  "fall</w>": 1769,
  "fam": 1770,
  "famil": 1771,
  "famili": 1772,
  "families</w>": 1773,
  "family</w>": 1774,
  "famous</w>": 1775,
  "fan": 1776,
  "fan</w>": 1777,
  "fancy</w>": 1778,
  "fantastic</w>": 1779,
  "far": 1780,
  "far</w>": 1781,
  "fas": 1782,
  "fascin": 1783,
  "fash": 1784,
  "fashion</w>": 1785,
  "fast": 1786,
  "fast</w>": 1787,
  "faster</w>": 1788,
  "fastest</w>": 1789,
  "father": 1790,
  "father</w>": 1791,
  "fav": 1792,
  "favor": 1793,
  "favorite</w>": 1794,
  "fe": 1795,
  "fe</w>": 1796,
  "fear</w>": 1797,
  "feature</w>": 1798,
  "fee</w>": 1799,
  "feed": 1800,
  "feed</w>": 1801,
  "feedback</w>": 1802,
  "feel": 1803,
  "feel</w>": 1804,
  "feeling</w>": 1805,
  "feels</w>": 1806,
  "feet</w>": 1807,
  "fel": 1808,
  "fell": 1809,
  "fell</w>": 1810,
  "fellow": 1811,
  "felt</w>": 1812,
  "fer": 1813,
  "fer</w>": 1814,
  "few</w>": 1815,
  "ff": 1816,
  "ff</w>": 1817,
  "ffe": 1818,
  "fi": 1819,
  "fi</w>": 1820,
  "fic": 1821,
  "ficial</w>": 1822,
  "fied</w>": 1823,
  "field</w>": 1824,
  "fig": 1825,
  "fight</w>": 1826,
  "figu": 1827,
  "figure</w>": 1828,
  "figured</w>": 1829,
  "figuring</w>": 1830,
  "fil": 1831,
  "fill</w>": 1832,
  "film</w>": 1833,
  "films</w>": 1834,
  "fin": 1835,
  "final</w>": 1836,
  "finally</w>": 1837,
  "finan": 1838,
  "finance</w>": 1839,
  "financial</w>": 1840,
  "financing</w>": 1841,
  "find</w>": 1842,
  "finding</w>": 1843,
  "fine</w>": 1844,
  "finish": 1845,
  "finish</w>": 1846,
  "finished</w>": 1847,
  "finite</w>": 1848,
  "fintech</w>": 1849,
  "fir": 1850,
  "fire</w>": 1851,
  "first,</w>": 1852,
  "first</w>": 1853,
  "firstly</w>": 1854,
  "fit": 1855,
  "fit</w>": 1856,
  "fitness</w>": 1857,
  "five</w>": 1858,
  "fix</w>": 1859,
  "fixed</w>": 1860,
  "fl": 1861,
  "fla": 1862,
  "flav": 1863,
  "flavor</w>": 1864,
  "fle": 1865,
  "fleet</w>": 1866,
  "fli": 1867,
  "flight</w>": 1868,
  "flip": 1869,
  "flip</w>": 1870,
  "flipkart</w>": 1871,
  "flo": 1872,
  "floor</w>": 1873,
  "flow": 1874,
  "flow</w>": 1875,
  "fly</w>": 1876,
  "fo": 1877,
  "foc": 1878,
  "focus</w>": 1879,
  "focused</w>": 1880,
  "fol": 1881,
  "folks</w>": 1882,
  "follow": 1883,
  "follow</w>": 1884,
  "followed</w>": 1885,
  "followers</w>": 1886,
  "following</w>": 1887,
  "foo": 1888,
  "food</w>": 1889,
  "foot": 1890,
  "foot</w>": 1891,
  "football</w>": 1892,
  "for": 1893,
  "for,</w>": 1894,
  "for</w>": 1895,
  "force</w>": 1896,
  "foreign</w>": 1897,
  "forget</w>": 1898,
  "form": 1899,
  "form</w>": 1900,
  "format</w>": 1901,
  "forms</w>": 1902,
  "formul": 1903,
  "forth</w>": 1904,
  "fortun": 1905,
  "fortunately</w>": 1906,
  "forward</w>": 1907,
  "foun": 1908,
  "found": 1909,
  "found</w>": 1910,
  "foundation</w>": 1911,
  "founder</w>": 1912,
  "founders</w>": 1913,
  "four": 1914,
  "four</w>": 1915,
  "fourth</w>": 1916,
  "fr": 1917,
  "fra": 1918,
  "fragranc": 1919,
  "fragrance</w>": 1920,
  "frame": 1921,
  "frame</w>": 1922,
  "framework</w>": 1923,
  "fran": 1924,
  "franc": 1925,
  "fre": 1926,
  "free</w>": 1927,
  "freed": 1928,
  "freedom</w>": 1929,
  "fresh</w>": 1930,
  "fri": 1931,
  "friend": 1932,
  "friend</w>": 1933,
  "friends</w>": 1934,
  "from": 1935,
  "from</w>": 1936,
  "fron": 1937,
  "front</w>": 1938,
  "fru": 1939,
  "fruit</w>": 1940,
  "ft</w>": 1941,
  "fu": 1942,
  "fuel</w>": 1943,
  "ful": 1944,
  "ful.</w>": 1945,
  "ful</w>": 1946,
  "full</w>": 1947,
  "fully</w>": 1948,
  "fun": 1949,
  "fun</w>": 1950,
  "func": 1951,
  "function</w>": 1952,
  "fund": 1953,
  "fund</w>": 1954,
  "fundament": 1955,
  "fundamental</w>": 1956,
  "fundamentally</w>": 1957,
  "funding</w>": 1958,
  "funds</w>": 1959,
  "funn": 1960,
  "funny</w>": 1961,
  "fur": 1962,
  "further</w>": 1963,
  "futu": 1964,
  "future,</w>": 1965,
  "future.</w>": 1966,
  "future</w>": 1967,
  "fy</w>": 1968,
  "g": 1969,
  "g</w>": 1970,
  "ga": 1971,
  "ga</w>": 1972,
  "gal": 1973,
  "gam": 1974,
  "game.</w>": 1975,
  "game</w>": 1976,
  "gamer</w>": 1977,
  "games</w>": 1978,
  "gaming</w>": 1979,
  "gap</w>": 1980,
  "gar": 1981,
  "gas</w>": 1982,
  "gate</w>": 1983,
  "gave</w>": 1984,
  "gd": 1985,
  "gdp</w>": 1986,
  "ge": 1987,
  "ge,</w>": 1988,
  "ge.</w>": 1989,
  "ge</w>": 1990,
  "ged</w>": 1991,
  "gen": 1992,
  "gen</w>": 1993,
  "gene": 1994,
  "gener": 1995,
  "general</w>": 1996,
  "generally</w>": 1997,
  "generate</w>": 1998,
  "generated</w>": 1999,
  "generation</w>": 2000,
  "generations</w>": 2001,
  "generic</w>": 2002,
  "genu": 2003,
  "genuinely</w>": 2004,
  "geo": 2005,
  "ger</w>": 2006,
  "ges</w>": 2007,
  "gest</w>": 2008,
  "get</w>": 2009,
  "gets</w>": 2010,
  "getting</w>": 2011,
  "gi": 2012,
  "gift</w>": 2013,
  "ging</w>": 2014,
  "gir": 2015,
  "girl</w>": 2016,
  "girls</w>": 2017,
  "giv": 2018,
  "give</w>": 2019,
  "given</w>": 2020,
  "gives</w>": 2021,
  "giving</w>": 2022,
  "gl": 2023,
  "glas": 2024,
  "glass</w>": 2025,
  "gle</w>": 2026,
  "glob": 2027,
  "global</w>": 2028,
  "globally</w>": 2029,
  "go": 2030,
  "go.</w>": 2031,
  "go</w>": 2032,
  "goa</w>": 2033,
  "goal</w>": 2034,
  "god": 2035,
  "god</w>": 2036,
  "goes</w>": 2037,
  "going</w>": 2038,
  "gol": 2039,
  "gold</w>": 2040,
  "gon": 2041,
  "gone</w>": 2042,
  "gonna</w>": 2043,
  "goo": 2044,
  "good": 2045,
  "good.</w>": 2046,
  "good</w>": 2047,
  "goods</w>": 2048,
  "goog": 2049,
  "google</w>": 2050,
  "got</w>": 2051,
  "gott": 2052,
  "gotten</w>": 2053,
  "govern": 2054,
  "government</w>": 2055,
  "governments</w>": 2056,
  "gp": 2057,
  "gpt</w>": 2058,
  "gr": 2059,
  "gra": 2060,
  "grad": 2061,
  "grad</w>": 2062,
  "grade</w>": 2063,
  "gradu": 2064,
  "grand": 2065,
  "grandfather</w>": 2066,
  "graph": 2067,
  "graphy</w>": 2068,
  "grat": 2069,
  "gre": 2070,
  "great": 2071,
  "great.</w>": 2072,
  "great</w>": 2073,
  "greater</w>": 2074,
  "green</w>": 2075,
  "grew</w>": 2076,
  "grid</w>": 2077,
  "gro": 2078,
  "grocer": 2079,
  "grou": 2080,
  "ground</w>": 2081,
  "group</w>": 2082,
  "groups</w>": 2083,
  "grow": 2084,
  "grow</w>": 2085,
  "growing</w>": 2086,
  "grown</w>": 2087,
  "growth</w>": 2088,
  "gry</w>": 2089,
  "gs</w>": 2090,
  "gu": 2091,
  "guar": 2092,
  "guarante": 2093,
  "gue</w>": 2094,
  "guess": 2095,
  "guess</w>": 2096,
  "guessing</w>": 2097,
  "gut</w>": 2098,
  "guy</w>": 2099,
  "guys</w>": 2100,
  "gy": 2101,
  "gy</w>": 2102,
  "gym</w>": 2103,
  "h": 2104,
  "h,</w>": 2105,
  "h</w>": 2106,
  "ha": 2107,
  "hac": 2108,
  "hack</w>": 2109,
  "had</w>": 2110,
  "hair": 2111,
  "hair</w>": 2112,
  "hal": 2113,
  "half</w>": 2114,
  "han": 2115,
  "han</w>": 2116,
  "hand": 2117,
  "hand</w>": 2118,
  "handle</w>": 2119,
  "hands</w>": 2120,
  "hang</w>": 2121,
  "hanging</w>": 2122,
  "happ": 2123,
  "happen": 2124,
  "happen.</w>": 2125,
  "happen</w>": 2126,
  "happened.</w>": 2127,
  "happened</w>": 2128,
  "happening.</w>": 2129,
  "happening</w>": 2130,
  "happens</w>": 2131,
  "happiness</w>": 2132,
  "happy</w>": 2133,
  "har": 2134,
  "hard": 2135,
  "hard</w>": 2136,
  "harder</w>": 2137,
  "hardware</w>": 2138,
  "has</w>": 2139,
  "hasn't</w>": 2140,
  "hate</w>": 2141,
  "have": 2142,
  "have,</w>": 2143,
  "have.</w>": 2144,
  "have</w>": 2145,
  "haven't</w>": 2146,
  "having</w>": 2147,
  "he": 2148,
  "he'll</w>": 2149,
  "he's</w>": 2150,
  "he</w>": 2151,
  "hea": 2152,
  "head</w>": 2153,
  "health": 2154,
  "health</w>": 2155,
  "healthy</w>": 2156,
  "hear": 2157,
  "hear</w>": 2158,
  "heard</w>": 2159,
  "hearing</w>": 2160,
  "heart</w>": 2161,
  "heat</w>": 2162,
  "hel": 2163,
  "hell</w>": 2164,
  "help": 2165,
  "help</w>": 2166,
  "helped</w>": 2167,
  "helping</w>": 2168,
  "helps</w>": 2169,
  "hence</w>": 2170,
  "her": 2171,
  "her</w>": 2172,
  "here": 2173,
  "here's</w>": 2174,
  "here,</w>": 2175,
  "here.</w>": 2176,
  "here</w>": 2177,
  "hero</w>": 2178,
  "hey,</w>": 2179,
  "hey</w>": 2180,
  "hi": 2181,
  "hi</w>": 2182,
  "hierarch": 2183,
  "high": 2184,
  "high</w>": 2185,
  "higher</w>": 2186,
  "highest</w>": 2187,
  "highly</w>": 2188,
  "hil</w>": 2189,
  "him": 2190,
  "him.</w>": 2191,
  "him</w>": 2192,
  "himself</w>": 2193,
  "hind": 2194,
  "hindi</w>": 2195,
  "hire</w>": 2196,
  "hiring</w>": 2197,
  "his</w>": 2198,
  "histor": 2199,
  "history</w>": 2200,
  "hit</w>": 2201,
  "ho": 2202,
  "hol": 2203,
  "hold</w>": 2204,
  "holding</w>": 2205,
  "holi": 2206,
  "hom": 2207,
  "home.</w>": 2208,
  "home</w>": 2209,
  "homes</w>": 2210,
  "hon": 2211,
  "honest": 2212,
  "honest</w>": 2213,
  "honestly</w>": 2214,
  "hoo": 2215,
  "hood</w>": 2216,
  "hop": 2217,
  "hope": 2218,
  "hope</w>": 2219,
  "hopefully</w>": 2220,
  "hor": 2221,
  "hospit": 2222,
  "hospital</w>": 2223,
  "hospitality</w>": 2224,
  "hot": 2225,
  "hot</w>": 2226,
  "hotel</w>": 2227,
  "hou": 2228,
  "hour</w>": 2229,
  "hours</w>": 2230,
  "hous": 2231,
  "house": 2232,
  "house</w>": 2233,
  "houses</w>": 2234,
  "how": 2235,
  "how</w>": 2236,
  "hu": 2237,
  "huge</w>": 2238,
  "huh</w>": 2239,
  "hul</w>": 2240,
  "hum": 2241,
  "human": 2242,
  "human</w>": 2243,
  "humanoid</w>": 2244,
  "humans</w>": 2245,
  "hun": 2246,
  "hundred</w>": 2247,
  "hundreds</w>": 2248,
  "hur": 2249,
  "hy": 2250,
  "hyderabad</w>": 2251,
  "hydrogen</w>": 2252,
  "hyper</w>": 2253,
  "i": 2254,
  "i'": 2255,
  "i'</w>": 2256,
  "i'd</w>": 2257,
  "i'll</w>": 2258,
  "i'm</w>": 2259,
  "i've</w>": 2260,
  "i,</w>": 2261,
  "i</w>": 2262,
  "ia</w>": 2263,
  "ial</w>": 2264,
  "ian</w>": 2265,
  "ibu": 2266,
  "ic": 2267,
  "ic</w>": 2268,
  "ical</w>": 2269,
  "ically,</w>": 2270,
  "ically</w>": 2271,
  "ice.</w>": 2272,
  "ice</w>": 2273,
  "ices</w>": 2274,
  "ich</w>": 2275,
  "ici": 2276,
  "icity</w>": 2277,
  "ick</w>": 2278,
  "ics</w>": 2279,
  "iction</w>": 2280,
  "icul": 2281,
  "id": 2282,
  "id</w>": 2283,
  "ide": 2284,
  "ide</w>": 2285,
  "idea": 2286,
  "idea.</w>": 2287,
  "idea</w>": 2288,
  "ideas</w>": 2289,
  "identi": 2290,
  "identify</w>": 2291,
  "identity</w>": 2292,
  "idge</w>": 2293,
  "ids</w>": 2294,
  "ience</w>": 2295,
  "ient</w>": 2296,
  "ier</w>": 2297,
  "ies,</w>": 2298,
  "ies.</w>": 2299,
  "ies</w>": 2300,
  "if</w>": 2301,
  "ification</w>": 2302,
  "ify</w>": 2303,
  "ig": 2304,
  "igh": 2305,
  "igh</w>": 2306,
  "ight": 2307,
  "ight</w>": 2308,
  "ights</w>": 2309,
  "ign": 2310,
  "ign</w>": 2311,
  "igning</w>": 2312,
  "iit</w>": 2313,
  "il": 2314,
  "il</w>": 2315,
  "ile": 2316,
  "ile</w>": 2317,
  "ili": 2318,
  "ilit": 2319,
  "ilities</w>": 2320,
  "ility</w>": 2321,
  "ill": 2322,
  "ill</w>": 2323,
  "illed</w>": 2324,
  "illi": 2325,
  "illions</w>": 2326,
  "ills</w>": 2327,
  "ils</w>": 2328,
  "ily</w>": 2329,
  "im": 2330,
  "im</w>": 2331,
  "imag": 2332,
  "image</w>": 2333,
  "imagine</w>": 2334,
  "imm": 2335,
  "immedi": 2336,
  "immediately</w>": 2337,
  "imp": 2338,
  "impact</w>": 2339,
  "imple": 2340,
  "import": 2341,
  "important.</w>": 2342,
  "important</w>": 2343,
  "impossible</w>": 2344,
  "impro": 2345,
  "improve</w>": 2346,
  "in": 2347,
  "in,</w>": 2348,
  "in.</w>": 2349,
  "in</w>": 2350,
  "ination</w>": 2351,
  "inc": 2352,
  "ince</w>": 2353,
  "incenti": 2354,
  "incentive</w>": 2355,
  "incentivi": 2356,
  "inci": 2357,
  "inclu": 2358,
  "including</w>": 2359,
  "income</w>": 2360,
  "incre": 2361,
  "increas": 2362,
  "increase</w>": 2363,
  "increasing</w>": 2364,
  "incredi": 2365,
  "incredible</w>": 2366,
  "incredibly</w>": 2367,
  "incumb": 2368,
  "incumbent</w>": 2369,
  "ind": 2370,
  "ind</w>": 2371,
  "inde": 2372,
  "independ": 2373,
  "independent</w>": 2374,
  "indi": 2375,
  "india": 2376,
  "india's</w>": 2377,
  "india,</w>": 2378,
  "india.</w>": 2379,
  "india</w>": 2380,
  "india?</w>": 2381,
  "indian</w>": 2382,
  "indians</w>": 2383,
  "individu": 2384,
  "individual</w>": 2385,
  "indu": 2386,
  "industr": 2387,
  "industrial</w>": 2388,
  "industries</w>": 2389,
  "industry</w>": 2390,
  "indē</w>": 2391,
  "ine": 2392,
  "ine.</w>": 2393,
  "ine</w>": 2394,
  "ined</w>": 2395,
  "ines</w>": 2396,
  "iness</w>": 2397,
  "inf": 2398,
  "influ": 2399,
  "influenc": 2400,
  "influence</w>": 2401,
  "influencer</w>": 2402,
  "influencers</w>": 2403,
  "inform": 2404,
  "information</w>": 2405,
  "infra": 2406,
  "infrastructure</w>": 2407,
  "ing": 2408,
  "ing,</w>": 2409,
  "ing.</w>": 2410,
  "ing</w>": 2411,
  "ing?</w>": 2412,
  "inging</w>": 2413,
  "ingly</w>": 2414,
  "ingredi": 2415,
  "ingredients</w>": 2416,
  "ings</w>": 2417,
  "inher": 2418,
  "inherently</w>": 2419,
  "ining</w>": 2420,
  "initi": 2421,
  "initial</w>": 2422,
  "initially</w>": 2423,
  "inly</w>": 2424,
  "inn": 2425,
  "innov": 2426,
  "innovation</w>": 2427,
  "innovative</w>": 2428,
  "input</w>": 2429,
  "ins": 2430,
  "ins</w>": 2431,
  "insan": 2432,
  "insane</w>": 2433,
  "insecure</w>": 2434,
  "insecurity</w>": 2435,
  "inside</w>": 2436,
  "insight</w>": 2437,
  "inspi": 2438,
  "inspir": 2439,
  "inspired</w>": 2440,
  "inst": 2441,
  "instagr": 2442,
  "instagram</w>": 2443,
  "instead</w>": 2444,
  "institu": 2445,
  "institutions</w>": 2446,
  "insurance</w>": 2447,
  "int": 2448,
  "int</w>": 2449,
  "integr": 2450,
  "intellec": 2451,
  "intellig": 2452,
  "intelligence</w>": 2453,
  "intelligent</w>": 2454,
  "intent</w>": 2455,
  "inter": 2456,
  "interact</w>": 2457,
  "interest": 2458,
  "interest</w>": 2459,
  "interested</w>": 2460,
  "interesting.</w>": 2461,
  "interesting</w>": 2462,
  "intern": 2463,
  "international</w>": 2464,
  "internet</w>": 2465,
  "interview</w>": 2466,
  "into</w>": 2467,
  "intro": 2468,
  "introduc": 2469,
  "introduced</w>": 2470,
  "inv": 2471,
  "invent": 2472,
  "inventory</w>": 2473,
  "invest": 2474,
  "invest</w>": 2475,
  "invested</w>": 2476,
  "investing</w>": 2477,
  "investment</w>": 2478,
  "investments</w>": 2479,
  "investor</w>": 2480,
  "investors</w>": 2481,
  "invol": 2482,
  "involved</w>": 2483,
  "io": 2484,
  "io</w>": 2485,
  "ion": 2486,
  "ion,</w>": 2487,
  "ion.</w>": 2488,
  "ion</w>": 2489,
  "ions</w>": 2490,
  "ior</w>": 2491,
  "ious</w>": 2492,
  "ip": 2493,
  "ip</w>": 2494,
  "ipo</w>": 2495,
  "ir": 2496,
  "ir</w>": 2497,
  "iran</w>": 2498,
  "ird</w>": 2499,
  "iring</w>": 2500,
  "is": 2501,
  "is,</w>": 2502,
  "is--</w>": 2503,
  "is...</w>": 2504,
  "is.</w>": 2505,
  "is</w>": 2506,
  "ise</w>": 2507,
  "ised</w>": 2508,
  "ish": 2509,
  "ish</w>": 2510,
  "ising</w>": 2511,
  "ision</w>": 2512,
  "ism</w>": 2513,
  "isn't</w>": 2514,
  "issu": 2515,
  "issue</w>": 2516,
  "issues</w>": 2517,
  "ist": 2518,
  "ist</w>": 2519,
  "istic</w>": 2520,
  "istr": 2521,
  "istry</w>": 2522,
  "it": 2523,
  "it'": 2524,
  "it'll</w>": 2525,
  "it's,</w>": 2526,
  "it's</w>": 2527,
  "it,</w>": 2528,
  "it.\"</w>": 2529,
  "it.</w>": 2530,
  "it</w>": 2531,
  "it?</w>": 2532,
  "itch": 2533,
  "itch</w>": 2534,
  "ite</w>": 2535,
  "ited</w>": 2536,
  "ither</w>": 2537,
  "iti": 2538,
  "ities.</w>": 2539,
  "ities</w>": 2540,
  "iting</w>": 2541,
  "ition": 2542,
  "ition</w>": 2543,
  "itional</w>": 2544,
  "itions</w>": 2545,
  "itive</w>": 2546,
  "itor</w>": 2547,
  "its</w>": 2548,
  "itself</w>": 2549,
  "itu": 2550,
  "ity,</w>": 2551,
  "ity.</w>": 2552,
  "ity</w>": 2553,
  "ium</w>": 2554,
  "iv": 2555,
  "ive</w>": 2556,
  "ived</w>": 2557,
  "iz": 2558,
  "ization</w>": 2559,
  "ize</w>": 2560,
  "ized</w>": 2561,
  "izing</w>": 2562,
  "j": 2563,
  "j</w>": 2564,
  "ja</w>": 2565,
  "jap": 2566,
  "japan</w>": 2567,
  "jay</w>": 2568,
  "je": 2569,
  "jec": 2570,
  "jo": 2571,
  "job": 2572,
  "job.</w>": 2573,
  "job</w>": 2574,
  "jobs</w>": 2575,
  "john</w>": 2576,
  "join</w>": 2577,
  "joined</w>": 2578,
  "journal": 2579,
  "journe": 2580,
  "journey</w>": 2581,
  "ju": 2582,
  "jud": 2583,
  "judge</w>": 2584,
  "jump</w>": 2585,
  "just": 2586,
  "just,</w>": 2587,
  "just</w>": 2588,
  "k": 2589,
  "k,</w>": 2590,
  "k.</w>": 2591,
  "k</w>": 2592,
  "ka</w>": 2593,
  "kar": 2594,
  "ke": 2595,
  "ke</w>": 2596,
  "ked</w>": 2597,
  "keep</w>": 2598,
  "keeping</w>": 2599,
  "keeps</w>": 2600,
  "kel</w>": 2601,
  "ken</w>": 2602,
  "kept</w>": 2603,
  "ker</w>": 2604,
  "kers</w>": 2605,
  "kes</w>": 2606,
  "ket</w>": 2607,
  "kets</w>": 2608,
  "key</w>": 2609,
  "khan</w>": 2610,
  "kid": 2611,
  "kid</w>": 2612,
  "kids.</w>": 2613,
  "kids</w>": 2614,
  "kil": 2615,
  "kill</w>": 2616,
  "kilome": 2617,
  "kin": 2618,
  "kind</w>": 2619,
  "kinds</w>": 2620,
  "king</w>": 2621,
  "kitch": 2622,
  "kitchen</w>": 2623,
  "km</w>": 2624,
  "knew</w>": 2625,
  "know": 2626,
  "know,</w>": 2627,
  "know...</w>": 2628,
  "know.</w>": 2629,
  "know</w>": 2630,
  "know?</w>": 2631,
  "knowing</w>": 2632,
  "knowle": 2633,
  "knowledge</w>": 2634,
  "known</w>": 2635,
  "knows</w>": 2636,
  "kombucha</w>": 2637,
  "kor": 2638,
  "kore": 2639,
  "korea</w>": 2640,
  "korean</w>": 2641,
  "ks.</w>": 2642,
  "ks</w>": 2643,
  "ky</w>": 2644,
  "l": 2645,
  "l</w>": 2646,
  "la": 2647,
  "la</w>": 2648,
  "lab": 2649,
  "lab</w>": 2650,
  "labe": 2651,
  "labor": 2652,
  "labour</w>": 2653,
  "lack</w>": 2654,
  "lad": 2655,
  "lak": 2656,
  "lakh</w>": 2657,
  "lakhs</w>": 2658,
  "lan": 2659,
  "land": 2660,
  "land</w>": 2661,
  "langu": 2662,
  "language</w>": 2663,
  "languages</w>": 2664,
  "lar": 2665,
  "lar</w>": 2666,
  "large": 2667,
  "large</w>": 2668,
  "largely</w>": 2669,
  "larger</w>": 2670,
  "largest</w>": 2671,
  "last</w>": 2672,
  "lat": 2673,
  "late</w>": 2674,
  "later</w>": 2675,
  "lation</w>": 2676,
  "laun": 2677,
  "launch</w>": 2678,
  "launched</w>": 2679,
  "law": 2680,
  "law</w>": 2681,
  "lay": 2682,
  "layer</w>": 2683,
  "ld</w>": 2684,
  "le": 2685,
  "le,</w>": 2686,
  "le.</w>": 2687,
  "le</w>": 2688,
  "lea": 2689,
  "lead</w>": 2690,
  "leader": 2691,
  "leader</w>": 2692,
  "leaders</w>": 2693,
  "leadership</w>": 2694,
  "leading</w>": 2695,
  "lear": 2696,
  "learn": 2697,
  "learn</w>": 2698,
  "learned</w>": 2699,
  "learning</w>": 2700,
  "learnt</w>": 2701,
  "least</w>": 2702,
  "leave</w>": 2703,
  "lec": 2704,
  "led</w>": 2705,
  "left</w>": 2706,
  "leg": 2707,
  "legacy</w>": 2708,
  "legal</w>": 2709,
  "lens</w>": 2710,
  "les</w>": 2711,
  "less": 2712,
  "less</w>": 2713,
  "lesser</w>": 2714,
  "let": 2715,
  "let's</w>": 2716,
  "let</w>": 2717,
  "lete</w>": 2718,
  "letter</w>": 2719,
  "level": 2720,
  "level</w>": 2721,
  "levels</w>": 2722,
  "leverage</w>": 2723,
  "li": 2724,
  "lic": 2725,
  "license</w>": 2726,
  "lif": 2727,
  "life": 2728,
  "life,</w>": 2729,
  "life.</w>": 2730,
  "life</w>": 2731,
  "lifestyle</w>": 2732,
  "lig": 2733,
  "ligh": 2734,
  "light</w>": 2735,
  "like": 2736,
  "like,</w>": 2737,
  "like--</w>": 2738,
  "like...</w>": 2739,
  "like</w>": 2740,
  "liked</w>": 2741,
  "likely</w>": 2742,
  "likes</w>": 2743,
  "lim": 2744,
  "limited</w>": 2745,
  "lin": 2746,
  "line.</w>": 2747,
  "line</w>": 2748,
  "lines</w>": 2749,
  "ling</w>": 2750,
  "link</w>": 2751,
  "linke": 2752,
  "linkedin</w>": 2753,
  "liqu": 2754,
  "liquid</w>": 2755,
  "liquor</w>": 2756,
  "lish": 2757,
  "lish</w>": 2758,
  "list": 2759,
  "list</w>": 2760,
  "listed</w>": 2761,
  "listen": 2762,
  "listen</w>": 2763,
  "listening</w>": 2764,
  "lit</w>": 2765,
  "liter": 2766,
  "literally</w>": 2767,
  "lithium</w>": 2768,
  "little</w>": 2769,
  "live</w>": 2770,
  "lived</w>": 2771,
  "lives</w>": 2772,
  "living</w>": 2773,
  "ll": 2774,
  "ll</w>": 2775,
  "lled</w>": 2776,
  "lling</w>": 2777,
  "lo": 2778,
  "load</w>": 2779,
  "loan</w>": 2780,
  "lob": 2781,
  "loc": 2782,
  "local</w>": 2783,
  "location</w>": 2784,
  "log": 2785,
  "logic</w>": 2786,
  "logical</w>": 2787,
  "logy</w>": 2788,
  "lon": 2789,
  "lond": 2790,
  "london</w>": 2791,
  "long": 2792,
  "long-": 2793,
  "long-term</w>": 2794,
  "long</w>": 2795,
  "longe": 2796,
  "longer</w>": 2797,
  "loo": 2798,
  "look,</w>": 2799,
  "look</w>": 2800,
  "looked</w>": 2801,
  "looking</w>": 2802,
  "looks</w>": 2803,
  "loop</w>": 2804,
  "lose</w>": 2805,
  "losing</w>": 2806,
  "loss</w>": 2807,
  "lost</w>": 2808,
  "lot.</w>": 2809,
  "lot</w>": 2810,
  "lots</w>": 2811,
  "love</w>": 2812,
  "loved</w>": 2813,
  "low": 2814,
  "low</w>": 2815,
  "lower</w>": 2816,
  "ls</w>": 2817,
  "lu": 2818,
  "luc": 2819,
  "lucky</w>": 2820,
  "lue</w>": 2821,
  "lun": 2822,
  "lunch</w>": 2823,
  "lution</w>": 2824,
  "luxur": 2825,
  "luxury</w>": 2826,
  "ly,</w>": 2827,
  "ly.</w>": 2828,
  "ly</w>": 2829,
  "lying</w>": 2830,
  "m": 2831,
  "m,</w>": 2832,
  "m.</w>": 2833,
  "m</w>": 2834,
  "ma": 2835,
  "ma</w>": 2836,
  "mac": 2837,
  "mach": 2838,
  "machine</w>": 2839,
  "machines</w>": 2840,
  "made</w>": 2841,
  "mag": 2842,
  "mage</w>": 2843,
  "magic</w>": 2844,
  "mail</w>": 2845,
  "main": 2846,
  "main</w>": 2847,
  "maj": 2848,
  "major</w>": 2849,
  "majority</w>": 2850,
  "make": 2851,
  "make</w>": 2852,
  "makes</w>": 2853,
  "making</w>": 2854,
  "mal": 2855,
  "male</w>": 2856,
  "mall</w>": 2857,
  "man": 2858,
  "man</w>": 2859,
  "manag": 2860,
  "manage": 2861,
  "manage</w>": 2862,
  "managed</w>": 2863,
  "management</w>": 2864,
  "manager</w>": 2865,
  "managers</w>": 2866,
  "managing</w>": 2867,
  "manner</w>": 2868,
  "manu": 2869,
  "manufactu": 2870,
  "manufactur": 2871,
  "manufacturing</w>": 2872,
  "many</w>": 2873,
  "map</w>": 2874,
  "mar": 2875,
  "marg": 2876,
  "margin</w>": 2877,
  "margins</w>": 2878,
  "mark</w>": 2879,
  "marke": 2880,
  "market": 2881,
  "market.</w>": 2882,
  "market</w>": 2883,
  "marketing</w>": 2884,
  "marketplace</w>": 2885,
  "markets</w>": 2886,
  "marks</w>": 2887,
  "marri": 2888,
  "marriage</w>": 2889,
  "married</w>": 2890,
  "mas": 2891,
  "mass</w>": 2892,
  "massive</w>": 2893,
  "mat": 2894,
  "match</w>": 2895,
  "mater": 2896,
  "material</w>": 2897,
  "math</w>": 2898,
  "matter": 2899,
  "matter</w>": 2900,
  "matters</w>": 2901,
  "max": 2902,
  "maximum</w>": 2903,
  "may": 2904,
  "may</w>": 2905,
  "maybe</w>": 2906,
  "mba</w>": 2907,
  "mc": 2908,
  "me": 2909,
  "me,</w>": 2910,
  "me.</w>": 2911,
  "me</w>": 2912,
  "me?</w>": 2913,
  "mea": 2914,
  "mean": 2915,
  "mean,</w>": 2916,
  "mean</w>": 2917,
  "meaning": 2918,
  "meaning</w>": 2919,
  "means</w>": 2920,
  "meant</w>": 2921,
  "measu": 2922,
  "measure</w>": 2923,
  "mechan": 2924,
  "med": 2925,
  "medi": 2926,
  "media</w>": 2927,
  "medic": 2928,
  "medical</w>": 2929,
  "medium</w>": 2930,
  "meet</w>": 2931,
  "meeting</w>": 2932,
  "mem": 2933,
  "members</w>": 2934,
  "memory</w>": 2935,
  "men": 2936,
  "men</w>": 2937,
  "ment": 2938,
  "ment,</w>": 2939,
  "ment.</w>": 2940,
  "ment</w>": 2941,
  "mental</w>": 2942,
  "mentation</w>": 2943,
  "mented</w>": 2944,
  "mention": 2945,
  "mentioned</w>": 2946,
  "ments</w>": 2947,
  "menu</w>": 2948,
  "mer": 2949,
  "mer</w>": 2950,
  "mes</w>": 2951,
  "messa": 2952,
  "message</w>": 2953,
  "met": 2954,
  "met</w>": 2955,
  "meta": 2956,
  "meta</w>": 2957,
  "metaverse</w>": 2958,
  "metr": 2959,
  "metric</w>": 2960,
  "mh</w>": 2961,
  "mhm.</w>": 2962,
  "mhm</w>": 2963,
  "mi": 2964,
  "mi</w>": 2965,
  "mic": 2966,
  "micro": 2967,
  "micro</w>": 2968,
  "microsoft</w>": 2969,
  "mid": 2970,
  "mid</w>": 2971,
  "middle</w>": 2972,
  "might</w>": 2973,
  "mil": 2974,
  "milk</w>": 2975,
  "milli": 2976,
  "million</w>": 2977,
  "millions</w>": 2978,
  "min": 2979,
  "mind": 2980,
  "mind.</w>": 2981,
  "mind</w>": 2982,
  "mindset</w>": 2983,
  "mine</w>": 2984,
  "ming</w>": 2985,
  "minimum</w>": 2986,
  "minist": 2987,
  "minu": 2988,
  "minute</w>": 2989,
  "minutes</w>": 2990,
  "mis": 2991,
  "miss</w>": 2992,
  "missed</w>": 2993,
  "missing</w>": 2994,
  "mission</w>": 2995,
  "mista": 2996,
  "mistake</w>": 2997,
  "mistakes</w>": 2998,
  "mit": 2999,
  "mit</w>": 3000,
  "mix": 3001,
  "mix</w>": 3002,
  "mm": 3003,
  "mm-h": 3004,
  "mm-hmm.</w>": 3005,
  "mm.</w>": 3006,
  "mo": 3007,
  "mob": 3008,
  "mobile</w>": 3009,
  "mobility</w>": 3010,
  "mod": 3011,
  "mode</w>": 3012,
  "model": 3013,
  "model</w>": 3014,
  "models</w>": 3015,
  "moder": 3016,
  "modern</w>": 3017,
  "mom": 3018,
  "mom</w>": 3019,
  "moment</w>": 3020,
  "mon": 3021,
  "mone": 3022,
  "moneti": 3023,
  "monetiz": 3024,
  "monetization</w>": 3025,
  "monetize</w>": 3026,
  "money,</w>": 3027,
  "money.</w>": 3028,
  "money</w>": 3029,
  "month": 3030,
  "month</w>": 3031,
  "months</w>": 3032,
  "mor": 3033,
  "more,</w>": 3034,
  "more.</w>": 3035,
  "more</w>": 3036,
  "morning</w>": 3037,
  "most</w>": 3038,
  "mostly</w>": 3039,
  "mother</w>": 3040,
  "motiv": 3041,
  "motor</w>": 3042,
  "mou": 3043,
  "mouth</w>": 3044,
  "move</w>": 3045,
  "moved</w>": 3046,
  "movement</w>": 3047,
  "moves</w>": 3048,
  "movi": 3049,
  "movie</w>": 3050,
  "movies</w>": 3051,
  "moving</w>": 3052,
  "mr</w>": 3053,
  "ms.</w>": 3054,
  "ms</w>": 3055,
  "mu": 3056,
  "much": 3057,
  "much.</w>": 3058,
  "much</w>": 3059,
  "mul": 3060,
  "multi": 3061,
  "multiple": 3062,
  "multiple</w>": 3063,
  "multiplex</w>": 3064,
  "mumb": 3065,
  "mumbai</w>": 3066,
  "mus": 3067,
  "muscle</w>": 3068,
  "music": 3069,
  "music</w>": 3070,
  "musici": 3071,
  "must</w>": 3072,
  "mutual</w>": 3073,
  "my": 3074,
  "my</w>": 3075,
  "myself</w>": 3076,
  "n": 3077,
  "n</w>": 3078,
  "na": 3079,
  "na</w>": 3080,
  "nam": 3081,
  "name</w>": 3082,
  "names</w>": 3083,
  "narr": 3084,
  "narrative</w>": 3085,
  "nat": 3086,
  "national</w>": 3087,
  "native</w>": 3088,
  "natur": 3089,
  "natural</w>": 3090,
  "naturally</w>": 3091,
  "nature</w>": 3092,
  "ne": 3093,
  "near</w>": 3094,
  "nec": 3095,
  "necess": 3096,
  "necessar": 3097,
  "necessarily</w>": 3098,
  "necessary</w>": 3099,
  "ned</w>": 3100,
  "nee": 3101,
  "need": 3102,
  "need</w>": 3103,
  "needed</w>": 3104,
  "needs</w>": 3105,
  "neg": 3106,
  "negative</w>": 3107,
  "negoti": 3108,
  "nel</w>": 3109,
  "ner": 3110,
  "ner</w>": 3111,
  "ness</w>": 3112,
  "net": 3113,
  "net</w>": 3114,
  "netfli": 3115,
  "netflix</w>": 3116,
  "network</w>": 3117,
  "networks</w>": 3118,
  "neur": 3119,
  "neural</w>": 3120,
  "never</w>": 3121,
  "new": 3122,
  "new</w>": 3123,
  "news</w>": 3124,
  "newspa": 3125,
  "nex": 3126,
  "next</w>": 3127,
  "ni": 3128,
  "nic": 3129,
  "nice</w>": 3130,
  "niche</w>": 3131,
  "night": 3132,
  "night</w>": 3133,
  "nik": 3134,
  "nikhil</w>": 3135,
  "nine</w>": 3136,
  "ning</w>": 3137,
  "nit": 3138,
  "no": 3139,
  "no,</w>": 3140,
  "no.</w>": 3141,
  "no</w>": 3142,
  "no?</w>": 3143,
  "nobody's</w>": 3144,
  "nobody</w>": 3145,
  "non": 3146,
  "none</w>": 3147,
  "nor": 3148,
  "norm": 3149,
  "normal</w>": 3150,
  "north</w>": 3151,
  "nost": 3152,
  "not": 3153,
  "not,</w>": 3154,
  "not.</w>": 3155,
  "not</w>": 3156,
  "nothing</w>": 3157,
  "notic": 3158,
  "noticed</w>": 3159,
  "notion</w>": 3160,
  "nov": 3161,
  "now": 3162,
  "now,</w>": 3163,
  "now.</w>": 3164,
  "now</w>": 3165,
  "now?</w>": 3166,
  "ns</w>": 3167,
  "nu": 3168,
  "nuclear</w>": 3169,
  "num": 3170,
  "number</w>": 3171,
  "numbers</w>": 3172,
  "nvidia</w>": 3173,
  "o": 3174,
  "o,</w>": 3175,
  "o.</w>": 3176,
  "o</w>": 3177,
  "ob": 3178,
  "objec": 3179,
  "objective</w>": 3180,
  "obs": 3181,
  "obvi": 3182,
  "obviously</w>": 3183,
  "oc": 3184,
  "occu": 3185,
  "od": 3186,
  "oda</w>": 3187,
  "odds</w>": 3188,
  "ode</w>": 3189,
  "ods</w>": 3190,
  "of": 3191,
  "of,</w>": 3192,
  "of--</w>": 3193,
  "of...</w>": 3194,
  "of</w>": 3195,
  "off": 3196,
  "off</w>": 3197,
  "offer</w>": 3198,
  "office</w>": 3199,
  "offline</w>": 3200,
  "often</w>": 3201,
  "oh,</w>": 3202,
  "oh</w>": 3203,
  "oid</w>": 3204,
  "oil</w>": 3205,
  "oing</w>": 3206,
  "ok": 3207,
  "okay,</w>": 3208,
  "okay.</w>": 3209,
  "okay</w>": 3210,
  "okay?</w>": 3211,
  "ol": 3212,
  "ola</w>": 3213,
  "old.</w>": 3214,
  "old</w>": 3215,
  "older</w>": 3216,
  "om": 3217,
  "om</w>": 3218,
  "ome": 3219,
  "on": 3220,
  "on,</w>": 3221,
  "on.</w>": 3222,
  "on</w>": 3223,
  "once</w>": 3224,
  "ond</w>": 3225,
  "one's</w>": 3226,
  "one,</w>": 3227,
  "one.</w>": 3228,
  "one</w>": 3229,
  "ones</w>": 3230,
  "ong": 3231,
  "ong</w>": 3232,
  "online</w>": 3233,
  "only</w>": 3234,
  "ons</w>": 3235,
  "onto</w>": 3236,
  "oo": 3237,
  "ood</w>": 3238,
  "ook</w>": 3239,
  "ool": 3240,
  "ool</w>": 3241,
  "ools</w>": 3242,
  "op": 3243,
  "op</w>": 3244,
  "open": 3245,
  "open</w>": 3246,
  "opened</w>": 3247,
  "opening</w>": 3248,
  "oper": 3249,
  "operate</w>": 3250,
  "operating</w>": 3251,
  "oph": 3252,
  "opin": 3253,
  "opinion</w>": 3254,
  "opinions</w>": 3255,
  "opo": 3256,
  "oppor": 3257,
  "opportun": 3258,
  "opportunities</w>": 3259,
  "opportunity</w>": 3260,
  "oppos": 3261,
  "opposite</w>": 3262,
  "optim": 3263,
  "optimistic</w>": 3264,
  "option</w>": 3265,
  "options</w>": 3266,
  "or": 3267,
  "or,</w>": 3268,
  "or.</w>": 3269,
  "or</w>": 3270,
  "ord": 3271,
  "ord</w>": 3272,
  "order": 3273,
  "order</w>": 3274,
  "ordin": 3275,
  "ordinary</w>": 3276,
  "ore</w>": 3277,
  "ored</w>": 3278,
  "org": 3279,
  "organ": 3280,
  "organic</w>": 3281,
  "organically</w>": 3282,
  "organis": 3283,
  "organization</w>": 3284,
  "organized</w>": 3285,
  "ori": 3286,
  "ories</w>": 3287,
  "orig": 3288,
  "origin": 3289,
  "original</w>": 3290,
  "ority</w>": 3291,
  "ors</w>": 3292,
  "ort</w>": 3293,
  "orts</w>": 3294,
  "ory</w>": 3295,
  "os": 3296,
  "os</w>": 3297,
  "ose</w>": 3298,
  "ot": 3299,
  "ot</w>": 3300,
  "other": 3301,
  "other,</w>": 3302,
  "other.</w>": 3303,
  "other</w>": 3304,
  "others</w>": 3305,
  "otherwi": 3306,
  "otherwise</w>": 3307,
  "ou": 3308,
  "oud</w>": 3309,
  "ough": 3310,
  "ough</w>": 3311,
  "ought</w>": 3312,
  "oul": 3313,
  "oun": 3314,
  "ound</w>": 3315,
  "ounded</w>": 3316,
  "ounding</w>": 3317,
  "ounds</w>": 3318,
  "our": 3319,
  "our</w>": 3320,
  "ours</w>": 3321,
  "ourselves</w>": 3322,
  "ous": 3323,
  "ous</w>": 3324,
  "ously</w>": 3325,
  "out": 3326,
  "out,</w>": 3327,
  "out.</w>": 3328,
  "out</w>": 3329,
  "outcome</w>": 3330,
  "output</w>": 3331,
  "outside</w>": 3332,
  "over": 3333,
  "over</w>": 3334,
  "overall</w>": 3335,
  "ow": 3336,
  "ow</w>": 3337,
  "owing</w>": 3338,
  "own": 3339,
  "own</w>": 3340,
  "owned</w>": 3341,
  "owner</w>": 3342,
  "owners</w>": 3343,
  "owns</w>": 3344,
  "p": 3345,
  "p,</w>": 3346,
  "p.</w>": 3347,
  "p</w>": 3348,
  "pa": 3349,
  "pac": 3350,
  "pace</w>": 3351,
  "pack": 3352,
  "pack</w>": 3353,
  "packaging</w>": 3354,
  "paid</w>": 3355,
  "pain": 3356,
  "pain</w>": 3357,
  "paint</w>": 3358,
  "pal": 3359,
  "pan": 3360,
  "pan</w>": 3361,
  "pandemic</w>": 3362,
  "paper</w>": 3363,
  "par": 3364,
  "parame": 3365,
  "parents</w>": 3366,
  "part": 3367,
  "part</w>": 3368,
  "particip": 3369,
  "particul": 3370,
  "particular</w>": 3371,
  "particularly</w>": 3372,
  "parties</w>": 3373,
  "partly</w>": 3374,
  "partment</w>": 3375,
  "partn": 3376,
  "partner</w>": 3377,
  "partners</w>": 3378,
  "partnership</w>": 3379,
  "parts</w>": 3380,
  "party</w>": 3381,
  "pas": 3382,
  "pass</w>": 3383,
  "passed</w>": 3384,
  "passion": 3385,
  "passion</w>": 3386,
  "passionate</w>": 3387,
  "past</w>": 3388,
  "pat": 3389,
  "path": 3390,
  "path</w>": 3391,
  "patrio": 3392,
  "patter": 3393,
  "pattern</w>": 3394,
  "patterns</w>": 3395,
  "pay": 3396,
  "pay</w>": 3397,
  "paying</w>": 3398,
  "payment</w>": 3399,
  "pe": 3400,
  "pe</w>": 3401,
  "peace</w>": 3402,
  "peak</w>": 3403,
  "pec": 3404,
  "pect</w>": 3405,
  "ped</w>": 3406,
  "people": 3407,
  "people's</w>": 3408,
  "people,</w>": 3409,
  "people.</w>": 3410,
  "people</w>": 3411,
  "per": 3412,
  "per</w>": 3413,
  "perc": 3414,
  "perce": 3415,
  "percent": 3416,
  "percent</w>": 3417,
  "percentage</w>": 3418,
  "percep": 3419,
  "perception</w>": 3420,
  "perfe": 3421,
  "perfect</w>": 3422,
  "perform": 3423,
  "performan": 3424,
  "performance</w>": 3425,
  "perfu": 3426,
  "perha": 3427,
  "perhaps</w>": 3428,
  "period</w>": 3429,
  "pers": 3430,
  "person": 3431,
  "person,</w>": 3432,
  "person.</w>": 3433,
  "person</w>": 3434,
  "personal</w>": 3435,
  "personality</w>": 3436,
  "personally</w>": 3437,
  "perspec": 3438,
  "perspectiv": 3439,
  "perspective</w>": 3440,
  "ph": 3441,
  "pha": 3442,
  "phase</w>": 3443,
  "phd</w>": 3444,
  "phenomen": 3445,
  "philanthrop": 3446,
  "philos": 3447,
  "philosoph": 3448,
  "philosophy</w>": 3449,
  "pho": 3450,
  "phone</w>": 3451,
  "phones</w>": 3452,
  "phys": 3453,
  "physical</w>": 3454,
  "pi": 3455,
  "pic": 3456,
  "pick</w>": 3457,
  "picked</w>": 3458,
  "picking</w>": 3459,
  "picture</w>": 3460,
  "pictures</w>": 3461,
  "piec": 3462,
  "piece</w>": 3463,
  "pieces</w>": 3464,
  "ping</w>": 3465,
  "pir": 3466,
  "pitch</w>": 3467,
  "piv": 3468,
  "pl": 3469,
  "pla": 3470,
  "plac": 3471,
  "place.</w>": 3472,
  "place</w>": 3473,
  "places</w>": 3474,
  "plan": 3475,
  "plan</w>": 3476,
  "planet</w>": 3477,
  "planning</w>": 3478,
  "plant</w>": 3479,
  "plat": 3480,
  "platform</w>": 3481,
  "platforms</w>": 3482,
  "play": 3483,
  "play</w>": 3484,
  "played</w>": 3485,
  "player</w>": 3486,
  "players</w>": 3487,
  "playing</w>": 3488,
  "plays</w>": 3489,
  "ple": 3490,
  "ple</w>": 3491,
  "plea": 3492,
  "please</w>": 3493,
  "pleasure</w>": 3494,
  "ples</w>": 3495,
  "plo": 3496,
  "plus</w>": 3497,
  "plying</w>": 3498,
  "po": 3499,
  "poc": 3500,
  "pod": 3501,
  "podca": 3502,
  "podcast</w>": 3503,
  "podcasts</w>": 3504,
  "poin": 3505,
  "point": 3506,
  "point,</w>": 3507,
  "point.</w>": 3508,
  "point</w>": 3509,
  "points</w>": 3510,
  "pol": 3511,
  "poli": 3512,
  "polic": 3513,
  "policy</w>": 3514,
  "politic": 3515,
  "political</w>": 3516,
  "politici": 3517,
  "politician</w>": 3518,
  "politicians</w>": 3519,
  "politics,</w>": 3520,
  "politics</w>": 3521,
  "poor</w>": 3522,
  "pop": 3523,
  "popul": 3524,
  "popular</w>": 3525,
  "population</w>": 3526,
  "por": 3527,
  "port": 3528,
  "port</w>": 3529,
  "portfoli": 3530,
  "portfolio</w>": 3531,
  "ports</w>": 3532,
  "pos": 3533,
  "pose</w>": 3534,
  "posed</w>": 3535,
  "position</w>": 3536,
  "positive</w>": 3537,
  "possi": 3538,
  "possib": 3539,
  "possible.</w>": 3540,
  "possible</w>": 3541,
  "possibly</w>": 3542,
  "post</w>": 3543,
  "pot": 3544,
  "potential</w>": 3545,
  "potentially</w>": 3546,
  "pow": 3547,
  "power": 3548,
  "power</w>": 3549,
  "powerful</w>": 3550,
  "pp": 3551,
  "pper</w>": 3552,
  "pping</w>": 3553,
  "pr": 3554,
  "pr</w>": 3555,
  "prac": 3556,
  "practical</w>": 3557,
  "practice</w>": 3558,
  "pre": 3559,
  "predic": 3560,
  "predict</w>": 3561,
  "prediction</w>": 3562,
  "premi": 3563,
  "premium": 3564,
  "premium</w>": 3565,
  "prepar": 3566,
  "pres": 3567,
  "present</w>": 3568,
  "presid": 3569,
  "president</w>": 3570,
  "press</w>": 3571,
  "pression</w>": 3572,
  "pressure</w>": 3573,
  "pretty</w>": 3574,
  "prev": 3575,
  "previous</w>": 3576,
  "pri": 3577,
  "pric": 3578,
  "price</w>": 3579,
  "prices</w>": 3580,
  "pricing</w>": 3581,
  "primar": 3582,
  "primarily</w>": 3583,
  "primary</w>": 3584,
  "prime</w>": 3585,
  "princi": 3586,
  "prise</w>": 3587,
  "priv": 3588,
  "private</w>": 3589,
  "privile": 3590,
  "pro": 3591,
  "pro</w>": 3592,
  "prob": 3593,
  "probab": 3594,
  "probability</w>": 3595,
  "probably</w>": 3596,
  "proble": 3597,
  "problem.</w>": 3598,
  "problem</w>": 3599,
  "problems</w>": 3600,
  "process": 3601,
  "process</w>": 3602,
  "produc": 3603,
  "produce</w>": 3604,
  "produced</w>": 3605,
  "producer</w>": 3606,
  "producing</w>": 3607,
  "product.</w>": 3608,
  "product</w>": 3609,
  "production</w>": 3610,
  "productiv": 3611,
  "productivity</w>": 3612,
  "products</w>": 3613,
  "prof": 3614,
  "profes": 3615,
  "profess": 3616,
  "profession": 3617,
  "profession</w>": 3618,
  "professional</w>": 3619,
  "professor</w>": 3620,
  "profile</w>": 3621,
  "profit": 3622,
  "profit</w>": 3623,
  "profitable</w>": 3624,
  "program": 3625,
  "program</w>": 3626,
  "progre": 3627,
  "progress</w>": 3628,
  "projec": 3629,
  "project</w>": 3630,
  "projects</w>": 3631,
  "prom": 3632,
  "promo": 3633,
  "promote</w>": 3634,
  "prompt</w>": 3635,
  "prop": 3636,
  "proper": 3637,
  "proper</w>": 3638,
  "property</w>": 3639,
  "prosper": 3640,
  "prote": 3641,
  "protein</w>": 3642,
  "proto": 3643,
  "protocol</w>": 3644,
  "proud</w>": 3645,
  "prove</w>": 3646,
  "provi": 3647,
  "provide</w>": 3648,
  "ps</w>": 3649,
  "psy": 3650,
  "psycho": 3651,
  "psychology</w>": 3652,
  "pt</w>": 3653,
  "ption</w>": 3654,
  "pu": 3655,
  "pub": 3656,
  "public": 3657,
  "public</w>": 3658,
  "publicly</w>": 3659,
  "pul": 3660,
  "pull</w>": 3661,
  "pun": 3662,
  "pur": 3663,
  "purcha": 3664,
  "pure</w>": 3665,
  "purely</w>": 3666,
  "purpose</w>": 3667,
  "pursu": 3668,
  "pus": 3669,
  "pus</w>": 3670,
  "push": 3671,
  "push</w>": 3672,
  "pushing</w>": 3673,
  "put</w>": 3674,
  "puts</w>": 3675,
  "putting</w>": 3676,
  "q": 3677,
  "q</w>": 3678,
  "qs": 3679,
  "qu": 3680,
  "qual": 3681,
  "quality</w>": 3682,
  "quant": 3683,
  "quantity</w>": 3684,
  "quar": 3685,
  "que</w>": 3686,
  "quest": 3687,
  "question": 3688,
  "question.</w>": 3689,
  "question</w>": 3690,
  "questions</w>": 3691,
  "qui": 3692,
  "quic": 3693,
  "quick": 3694,
  "quick</w>": 3695,
  "quickly</w>": 3696,
  "quite</w>": 3697,
  "quo": 3698,
  "r": 3699,
  "r</w>": 3700,
  "ra": 3701,
  "ra</w>": 3702,
  "race</w>": 3703,
  "rad": 3704,
  "raise</w>": 3705,
  "raised</w>": 3706,
  "raising</w>": 3707,
  "raj</w>": 3708,
  "ram": 3709,
  "ran": 3710,
  "ran</w>": 3711,
  "rand": 3712,
  "random</w>": 3713,
  "range</w>": 3714,
  "rap": 3715,
  "rare</w>": 3716,
  "rat": 3717,
  "rate</w>": 3718,
  "rates</w>": 3719,
  "rather</w>": 3720,
  "ratio</w>": 3721,
  "raw</w>": 3722,
  "re": 3723,
  "re,</w>": 3724,
  "re.</w>": 3725,
  "re</w>": 3726,
  "reach</w>": 3727,
  "reached</w>": 3728,
  "reaction</w>": 3729,
  "read": 3730,
  "read</w>": 3731,
  "reading</w>": 3732,
  "ready</w>": 3733,
  "real": 3734,
  "real</w>": 3735,
  "reality</w>": 3736,
  "realize</w>": 3737,
  "realized</w>": 3738,
  "reall": 3739,
  "really,</w>": 3740,
  "really</w>": 3741,
  "reas": 3742,
  "reason": 3743,
  "reason</w>": 3744,
  "reasonable</w>": 3745,
  "reasoning</w>": 3746,
  "reasons</w>": 3747,
  "rec": 3748,
  "recent</w>": 3749,
  "recently</w>": 3750,
  "reci": 3751,
  "recogn": 3752,
  "recognize</w>": 3753,
  "recomm": 3754,
  "recommend</w>": 3755,
  "recor": 3756,
  "record</w>": 3757,
  "red</w>": 3758,
  "reduc": 3759,
  "reduce</w>": 3760,
  "ree</w>": 3761,
  "refer": 3762,
  "refle": 3763,
  "reg": 3764,
  "regre": 3765,
  "regul": 3766,
  "regular</w>": 3767,
  "regulation</w>": 3768,
  "rel": 3769,
  "relate</w>": 3770,
  "related</w>": 3771,
  "relation": 3772,
  "relationship</w>": 3773,
  "relationships</w>": 3774,
  "relative</w>": 3775,
  "relea": 3776,
  "relev": 3777,
  "relevant</w>": 3778,
  "reli": 3779,
  "relig": 3780,
  "religion</w>": 3781,
  "rely</w>": 3782,
  "remain</w>": 3783,
  "remem": 3784,
  "remember</w>": 3785,
  "rement</w>": 3786,
  "remove</w>": 3787,
  "renewa": 3788,
  "renewable</w>": 3789,
  "rent</w>": 3790,
  "rep": 3791,
  "repe": 3792,
  "replac": 3793,
  "replace</w>": 3794,
  "replic": 3795,
  "report</w>": 3796,
  "repres": 3797,
  "requi": 3798,
  "require</w>": 3799,
  "required</w>": 3800,
  "requires</w>": 3801,
  "res": 3802,
  "res</w>": 3803,
  "resear": 3804,
  "research</w>": 3805,
  "resid": 3806,
  "reson": 3807,
  "resonate</w>": 3808,
  "resour": 3809,
  "resources</w>": 3810,
  "respec": 3811,
  "respect</w>": 3812,
  "respon": 3813,
  "responsi": 3814,
  "responsibility</w>": 3815,
  "rest</w>": 3816,
  "restaur": 3817,
  "restaurant</w>": 3818,
  "restaurants</w>": 3819,
  "resul": 3820,
  "result</w>": 3821,
  "results</w>": 3822,
  "retail</w>": 3823,
  "reti": 3824,
  "retur": 3825,
  "return</w>": 3826,
  "returns</w>": 3827,
  "revenu": 3828,
  "revenue</w>": 3829,
  "reverse</w>": 3830,
  "ri": 3831,
  "rible</w>": 3832,
  "ric": 3833,
  "rich": 3834,
  "rich</w>": 3835,
  "ried</w>": 3836,
  "right": 3837,
  "right,</w>": 3838,
  "right.</w>": 3839,
  "right</w>": 3840,
  "right?</w>": 3841,
  "rights</w>": 3842,
  "ring</w>": 3843,
  "ris": 3844,
  "rise</w>": 3845,
  "risk</w>": 3846,
  "ro": 3847,
  "ro</w>": 3848,
  "road</w>": 3849,
  "rob": 3850,
  "roblox</w>": 3851,
  "robo": 3852,
  "robot</w>": 3853,
  "robots</w>": 3854,
  "roid</w>": 3855,
  "role</w>": 3856,
  "rom": 3857,
  "roo": 3858,
  "room": 3859,
  "room</w>": 3860,
  "ross</w>": 3861,
  "round</w>": 3862,
  "rout": 3863,
  "ru": 3864,
  "rul": 3865,
  "rule</w>": 3866,
  "rules</w>": 3867,
  "run": 3868,
  "run</w>": 3869,
  "running</w>": 3870,
  "runs</w>": 3871,
  "rup": 3872,
  "rupe": 3873,
  "rupee</w>": 3874,
  "rupees</w>": 3875,
  "rupes</w>": 3876,
  "rural</w>": 3877,
  "rus": 3878,
  "russi": 3879,
  "ry</w>": 3880,
  "s": 3881,
  "s,</w>": 3882,
  "s--</w>": 3883,
  "s...</w>": 3884,
  "s.</w>": 3885,
  "s</w>": 3886,
  "s?</w>": 3887,
  "sa": 3888,
  "safe": 3889,
  "safe</w>": 3890,
  "said": 3891,
  "said,</w>": 3892,
  "said</w>": 3893,
  "sal": 3894,
  "salary</w>": 3895,
  "sale</w>": 3896,
  "sales</w>": 3897,
  "sam": 3898,
  "same.</w>": 3899,
  "same</w>": 3900,
  "san</w>": 3901,
  "sat": 3902,
  "sat</w>": 3903,
  "sav": 3904,
  "save</w>": 3905,
  "saw</w>": 3906,
  "say": 3907,
  "say,</w>": 3908,
  "say.</w>": 3909,
  "say</w>": 3910,
  "saying,</w>": 3911,
  "saying</w>": 3912,
  "says</w>": 3913,
  "sc": 3914,
  "scal": 3915,
  "scale</w>": 3916,
  "scaled</w>": 3917,
  "scar": 3918,
  "scared</w>": 3919,
  "scen": 3920,
  "scenari": 3921,
  "sch": 3922,
  "school": 3923,
  "school</w>": 3924,
  "schools</w>": 3925,
  "sci": 3926,
  "science</w>": 3927,
  "scienti": 3928,
  "sco": 3929,
  "scoo": 3930,
  "scooter</w>": 3931,
  "scot": 3932,
  "scr": 3933,
  "scre": 3934,
  "screen</w>": 3935,
  "screens</w>": 3936,
  "scri": 3937,
  "se": 3938,
  "se,</w>": 3939,
  "se.</w>": 3940,
  "se</w>": 3941,
  "sear": 3942,
  "search</w>": 3943,
  "sec": 3944,
  "secon": 3945,
  "second": 3946,
  "second</w>": 3947,
  "seconds</w>": 3948,
  "secre": 3949,
  "section</w>": 3950,
  "sector</w>": 3951,
  "sectors</w>": 3952,
  "secu": 3953,
  "secur": 3954,
  "secure</w>": 3955,
  "security</w>": 3956,
  "sed</w>": 3957,
  "see": 3958,
  "see,</w>": 3959,
  "see</w>": 3960,
  "seeing</w>": 3961,
  "seek</w>": 3962,
  "seem": 3963,
  "seem</w>": 3964,
  "seems</w>": 3965,
  "seen</w>": 3966,
  "seg": 3967,
  "segment</w>": 3968,
  "sel": 3969,
  "selec": 3970,
  "self": 3971,
  "self,</w>": 3972,
  "self-": 3973,
  "self.</w>": 3974,
  "self</w>": 3975,
  "sell</w>": 3976,
  "selling</w>": 3977,
  "sells</w>": 3978,
  "selv": 3979,
  "selves</w>": 3980,
  "sely</w>": 3981,
  "sen": 3982,
  "send</w>": 3983,
  "senior</w>": 3984,
  "sense</w>": 3985,
  "sent</w>": 3986,
  "separ": 3987,
  "separate</w>": 3988,
  "sequ": 3989,
  "ser": 3990,
  "ser</w>": 3991,
  "seri": 3992,
  "series</w>": 3993,
  "serious</w>": 3994,
  "serv": 3995,
  "serve</w>": 3996,
  "served</w>": 3997,
  "server</w>": 3998,
  "servic": 3999,
  "service</w>": 4000,
  "services</w>": 4001,
  "serving</w>": 4002,
  "ses</w>": 4003,
  "session</w>": 4004,
  "set</w>": 4005,
  "sets</w>": 4006,
  "setting</w>": 4007,
  "seven</w>": 4008,
  "several</w>": 4009,
  "sh": 4010,
  "sh</w>": 4011,
  "sha": 4012,
  "shah</w>": 4013,
  "sham": 4014,
  "shape</w>": 4015,
  "shar": 4016,
  "share</w>": 4017,
  "shared</w>": 4018,
  "sharing</w>": 4019,
  "she": 4020,
  "she's</w>": 4021,
  "she</w>": 4022,
  "sheet</w>": 4023,
  "shel": 4024,
  "shi": 4025,
  "shif": 4026,
  "shift</w>": 4027,
  "ship</w>": 4028,
  "ships</w>": 4029,
  "shir": 4030,
  "shirt</w>": 4031,
  "sho": 4032,
  "shoc": 4033,
  "shoo": 4034,
  "shoot</w>": 4035,
  "shooting</w>": 4036,
  "shop": 4037,
  "shop</w>": 4038,
  "shopping</w>": 4039,
  "shops</w>": 4040,
  "shor": 4041,
  "short-": 4042,
  "short</w>": 4043,
  "shot</w>": 4044,
  "should</w>": 4045,
  "shouldn't</w>": 4046,
  "show": 4047,
  "show</w>": 4048,
  "showed</w>": 4049,
  "showing</w>": 4050,
  "shows</w>": 4051,
  "shu": 4052,
  "shut</w>": 4053,
  "si": 4054,
  "sible</w>": 4055,
  "sid": 4056,
  "side,</w>": 4057,
  "side.</w>": 4058,
  "side</w>": 4059,
  "sides</w>": 4060,
  "sign": 4061,
  "sign</w>": 4062,
  "signal</w>": 4063,
  "signaling</w>": 4064,
  "signific": 4065,
  "significant</w>": 4066,
  "significantly</w>": 4067,
  "silicon</w>": 4068,
  "sim": 4069,
  "similar": 4070,
  "similar</w>": 4071,
  "similarly</w>": 4072,
  "simp": 4073,
  "simpl": 4074,
  "simple</w>": 4075,
  "simply</w>": 4076,
  "simul": 4077,
  "since</w>": 4078,
  "sing": 4079,
  "sing</w>": 4080,
  "singapore</w>": 4081,
  "single</w>": 4082,
  "sion": 4083,
  "sion</w>": 4084,
  "sions</w>": 4085,
  "sis</w>": 4086,
  "sist": 4087,
  "sister</w>": 4088,
  "sit": 4089,
  "sit</w>": 4090,
  "site</w>": 4091,
  "sitting</w>": 4092,
  "situ": 4093,
  "situation</w>": 4094,
  "sity</w>": 4095,
  "sive</w>": 4096,
  "six</w>": 4097,
  "siz": 4098,
  "size</w>": 4099,
  "sk": 4100,
  "skill</w>": 4101,
  "skills</w>": 4102,
  "skin": 4103,
  "skin</w>": 4104,
  "skincare</w>": 4105,
  "sle": 4106,
  "sleep</w>": 4107,
  "sligh": 4108,
  "slightly</w>": 4109,
  "slow": 4110,
  "slow</w>": 4111,
  "slowly</w>": 4112,
  "sm": 4113,
  "sm</w>": 4114,
  "small": 4115,
  "small</w>": 4116,
  "smaller</w>": 4117,
  "smar": 4118,
  "smart": 4119,
  "smart</w>": 4120,
  "smarter</w>": 4121,
  "smell</w>": 4122,
  "so": 4123,
  "so,</w>": 4124,
  "so...</w>": 4125,
  "so.</w>": 4126,
  "so</w>": 4127,
  "soci": 4128,
  "social": 4129,
  "social</w>": 4130,
  "socialism</w>": 4131,
  "societ": 4132,
  "society,</w>": 4133,
  "society</w>": 4134,
  "soda</w>": 4135,
  "sof": 4136,
  "soft</w>": 4137,
  "softw": 4138,
  "software</w>": 4139,
  "sol": 4140,
  "solar</w>": 4141,
  "sold</w>": 4142,
  "solu": 4143,
  "solution</w>": 4144,
  "solutions</w>": 4145,
  "solve</w>": 4146,
  "solved</w>": 4147,
  "solving</w>": 4148,
  "som": 4149,
  "some": 4150,
  "some</w>": 4151,
  "somebody's</w>": 4152,
  "somebody</w>": 4153,
  "somehow</w>": 4154,
  "someone's</w>": 4155,
  "someone</w>": 4156,
  "something": 4157,
  "something,</w>": 4158,
  "something.</w>": 4159,
  "something</w>": 4160,
  "sometimes,</w>": 4161,
  "sometimes</w>": 4162,
  "somewhat</w>": 4163,
  "somewhere</w>": 4164,
  "son</w>": 4165,
  "song": 4166,
  "song</w>": 4167,
  "soon</w>": 4168,
  "sophistic": 4169,
  "sor": 4170,
  "sorr": 4171,
  "sorry</w>": 4172,
  "sort</w>": 4173,
  "sou": 4174,
  "sound</w>": 4175,
  "sounds</w>": 4176,
  "sour": 4177,
  "sourc": 4178,
  "source</w>": 4179,
  "south</w>": 4180,
  "sp": 4181,
  "spac": 4182,
  "space</w>": 4183,
  "spaces</w>": 4184,
  "spar": 4185,
  "spea": 4186,
  "speak</w>": 4187,
  "speaking</w>": 4188,
  "spec": 4189,
  "speci": 4190,
  "special</w>": 4191,
  "specific</w>": 4192,
  "specifically</w>": 4193,
  "spee": 4194,
  "speed</w>": 4195,
  "spend</w>": 4196,
  "spending</w>": 4197,
  "spent</w>": 4198,
  "sper": 4199,
  "spi": 4200,
  "spir": 4201,
  "spirit</w>": 4202,
  "spiritu": 4203,
  "split</w>": 4204,
  "spo": 4205,
  "spoke</w>": 4206,
  "spoken</w>": 4207,
  "spon": 4208,
  "spor": 4209,
  "sport</w>": 4210,
  "sports</w>": 4211,
  "spot</w>": 4212,
  "squ": 4213,
  "square</w>": 4214,
  "ss</w>": 4215,
  "ssi": 4216,
  "st": 4217,
  "st,</w>": 4218,
  "st.</w>": 4219,
  "st</w>": 4220,
  "sta": 4221,
  "stable</w>": 4222,
  "stack</w>": 4223,
  "stage</w>": 4224,
  "stan": 4225,
  "stand": 4226,
  "stand</w>": 4227,
  "standard</w>": 4228,
  "standing</w>": 4229,
  "star": 4230,
  "star</w>": 4231,
  "starbucks</w>": 4232,
  "stars</w>": 4233,
  "start</w>": 4234,
  "starte": 4235,
  "started</w>": 4236,
  "starting</w>": 4237,
  "starts</w>": 4238,
  "startup</w>": 4239,
  "startups</w>": 4240,
  "stat": 4241,
  "state": 4242,
  "state</w>": 4243,
  "statement</w>": 4244,
  "states</w>": 4245,
  "station</w>": 4246,
  "status</w>": 4247,
  "stay</w>": 4248,
  "stayed</w>": 4249,
  "ste": 4250,
  "ste</w>": 4251,
  "sted</w>": 4252,
  "step</w>": 4253,
  "steps</w>": 4254,
  "ster": 4255,
  "ster</w>": 4256,
  "stern</w>": 4257,
  "sters</w>": 4258,
  "stic": 4259,
  "stick</w>": 4260,
  "stig": 4261,
  "still</w>": 4262,
  "sting</w>": 4263,
  "stly</w>": 4264,
  "stoc": 4265,
  "stock</w>": 4266,
  "stocks</w>": 4267,
  "stop": 4268,
  "stop</w>": 4269,
  "stopped</w>": 4270,
  "stor": 4271,
  "storage</w>": 4272,
  "store</w>": 4273,
  "stores</w>": 4274,
  "stories</w>": 4275,
  "story": 4276,
  "story.</w>": 4277,
  "story</w>": 4278,
  "storytelling</w>": 4279,
  "str": 4280,
  "stra": 4281,
  "straight</w>": 4282,
  "strateg": 4283,
  "strategy</w>": 4284,
  "stre": 4285,
  "stream</w>": 4286,
  "streaming</w>": 4287,
  "street</w>": 4288,
  "streng": 4289,
  "strength</w>": 4290,
  "stress</w>": 4291,
  "strong</w>": 4292,
  "struc": 4293,
  "structu": 4294,
  "structure</w>": 4295,
  "strug": 4296,
  "sts</w>": 4297,
  "stu": 4298,
  "stuck</w>": 4299,
  "stud": 4300,
  "student</w>": 4301,
  "studi": 4302,
  "studied</w>": 4303,
  "studies</w>": 4304,
  "study</w>": 4305,
  "studying</w>": 4306,
  "stuff": 4307,
  "stuff,</w>": 4308,
  "stuff.</w>": 4309,
  "stuff</w>": 4310,
  "stup": 4311,
  "stupid</w>": 4312,
  "sty": 4313,
  "style</w>": 4314,
  "su": 4315,
  "sual</w>": 4316,
  "sub": 4317,
  "subjec": 4318,
  "subject</w>": 4319,
  "subscri": 4320,
  "subscribe</w>": 4321,
  "subscription</w>": 4322,
  "subsidi": 4323,
  "suc": 4324,
  "succe": 4325,
  "succeed</w>": 4326,
  "success": 4327,
  "success</w>": 4328,
  "successful</w>": 4329,
  "such</w>": 4330,
  "sud": 4331,
  "sudden": 4332,
  "suddenly</w>": 4333,
  "suff": 4334,
  "sug": 4335,
  "sugar</w>": 4336,
  "sugge": 4337,
  "sul": 4338,
  "sum": 4339,
  "sume</w>": 4340,
  "summar": 4341,
  "sun": 4342,
  "sun</w>": 4343,
  "sup": 4344,
  "super": 4345,
  "super</w>": 4346,
  "supp": 4347,
  "supple": 4348,
  "supplements</w>": 4349,
  "suppli": 4350,
  "supply</w>": 4351,
  "suppor": 4352,
  "support</w>": 4353,
  "supposed</w>": 4354,
  "sur": 4355,
  "sure.</w>": 4356,
  "sure</w>": 4357,
  "surpr": 4358,
  "surprised</w>": 4359,
  "sus": 4360,
  "sus</w>": 4361,
  "suspect</w>": 4362,
  "susta": 4363,
  "sustain": 4364,
  "sustainable</w>": 4365,
  "sw": 4366,
  "swa": 4367,
  "swapping</w>": 4368,
  "swe": 4369,
  "sweet</w>": 4370,
  "swi": 4371,
  "swit": 4372,
  "switch</w>": 4373,
  "sy": 4374,
  "syste": 4375,
  "system.</w>": 4376,
  "system</w>": 4377,
  "systems</w>": 4378,
  "t": 4379,
  "t,</w>": 4380,
  "t-": 4381,
  "t-shirt</w>": 4382,
  "t...</w>": 4383,
  "t.</w>": 4384,
  "t</w>": 4385,
  "t?</w>": 4386,
  "ta": 4387,
  "tab": 4388,
  "table</w>": 4389,
  "tail": 4390,
  "tail</w>": 4391,
  "tails</w>": 4392,
  "tain</w>": 4393,
  "take</w>": 4394,
  "taken</w>": 4395,
  "takes</w>": 4396,
  "taking</w>": 4397,
  "tal": 4398,
  "talent</w>": 4399,
  "talented</w>": 4400,
  "talk</w>": 4401,
  "talked</w>": 4402,
  "talking</w>": 4403,
  "talks</w>": 4404,
  "tan": 4405,
  "tar": 4406,
  "target</w>": 4407,
  "tari": 4408,
  "tariff": 4409,
  "tas": 4410,
  "task</w>": 4411,
  "tasks</w>": 4412,
  "tast": 4413,
  "taste</w>": 4414,
  "tation</w>": 4415,
  "taught</w>": 4416,
  "tax": 4417,
  "tax</w>": 4418,
  "taxes</w>": 4419,
  "te": 4420,
  "te</w>": 4421,
  "tea": 4422,
  "tea</w>": 4423,
  "teach": 4424,
  "teach</w>": 4425,
  "teacher</w>": 4426,
  "teachers</w>": 4427,
  "teaching</w>": 4428,
  "team</w>": 4429,
  "teams</w>": 4430,
  "tech": 4431,
  "tech</w>": 4432,
  "technical</w>": 4433,
  "technically</w>": 4434,
  "technolog": 4435,
  "technologies</w>": 4436,
  "technology,</w>": 4437,
  "technology.</w>": 4438,
  "technology</w>": 4439,
  "ted</w>": 4440,
  "tel": 4441,
  "telev": 4442,
  "television</w>": 4443,
  "tell": 4444,
  "tell</w>": 4445,
  "telling</w>": 4446,
  "tells</w>": 4447,
  "tely</w>": 4448,
  "tem": 4449,
  "temper": 4450,
  "temperature</w>": 4451,
  "ten": 4452,
  "ten</w>": 4453,
  "tend</w>": 4454,
  "ter": 4455,
  "ter</w>": 4456,
  "term</w>": 4457,
  "terms</w>": 4458,
  "tern": 4459,
  "terrible</w>": 4460,
  "ters</w>": 4461,
  "tes": 4462,
  "tes</w>": 4463,
  "tesla</w>": 4464,
  "test": 4465,
  "test</w>": 4466,
  "tex": 4467,
  "text</w>": 4468,
  "textile</w>": 4469,
  "th": 4470,
  "th,</w>": 4471,
  "th.</w>": 4472,
  "th</w>": 4473,
  "than": 4474,
  "than</w>": 4475,
  "thank</w>": 4476,
  "thanks</w>": 4477,
  "that": 4478,
  "that'": 4479,
  "that'll</w>": 4480,
  "that's</w>": 4481,
  "that,</w>": 4482,
  "that--</w>": 4483,
  "that...</w>": 4484,
  "that.</w>": 4485,
  "that</w>": 4486,
  "that?</w>": 4487,
  "the": 4488,
  "the--</w>": 4489,
  "the...</w>": 4490,
  "the</w>": 4491,
  "theat": 4492,
  "theater</w>": 4493,
  "their</w>": 4494,
  "them": 4495,
  "them,</w>": 4496,
  "them.</w>": 4497,
  "them</w>": 4498,
  "themselv": 4499,
  "themselves</w>": 4500,
  "then": 4501,
  "then,</w>": 4502,
  "then</w>": 4503,
  "theory</w>": 4504,
  "ther": 4505,
  "ther</w>": 4506,
  "therap": 4507,
  "there": 4508,
  "there'll</w>": 4509,
  "there's</w>": 4510,
  "there,</w>": 4511,
  "there.</w>": 4512,
  "there</w>": 4513,
  "therefore</w>": 4514,
  "thers</w>": 4515,
  "these</w>": 4516,
  "thesis</w>": 4517,
  "thetic</w>": 4518,
  "they": 4519,
  "they'll</w>": 4520,
  "they're</w>": 4521,
  "they've</w>": 4522,
  "they</w>": 4523,
  "thin": 4524,
  "thing": 4525,
  "thing,</w>": 4526,
  "thing.</w>": 4527,
  "thing</w>": 4528,
  "things,</w>": 4529,
  "things.</w>": 4530,
  "things</w>": 4531,
  "think": 4532,
  "think,</w>": 4533,
  "think...</w>": 4534,
  "think.</w>": 4535,
  "think</w>": 4536,
  "think?</w>": 4537,
  "thinking</w>": 4538,
  "thinks</w>": 4539,
  "third</w>": 4540,
  "this": 4541,
  "this,</w>": 4542,
  "this.</w>": 4543,
  "this</w>": 4544,
  "this?</w>": 4545,
  "tho": 4546,
  "those</w>": 4547,
  "though": 4548,
  "though</w>": 4549,
  "thought</w>": 4550,
  "thoughts</w>": 4551,
  "thous": 4552,
  "thousand</w>": 4553,
  "thousands</w>": 4554,
  "thr": 4555,
  "thre": 4556,
  "three</w>": 4557,
  "through": 4558,
  "through</w>": 4559,
  "throughout</w>": 4560,
  "throw</w>": 4561,
  "ths</w>": 4562,
  "thumb": 4563,
  "ti": 4564,
  "ti</w>": 4565,
  "tic": 4566,
  "tic</w>": 4567,
  "tical</w>": 4568,
  "tically</w>": 4569,
  "ticket</w>": 4570,
  "tics</w>": 4571,
  "tier</w>": 4572,
  "ties</w>": 4573,
  "tik</w>": 4574,
  "tile</w>": 4575,
  "tili": 4576,
  "till</w>": 4577,
  "tim": 4578,
  "time,</w>": 4579,
  "time.</w>": 4580,
  "time</w>": 4581,
  "times,</w>": 4582,
  "times.</w>": 4583,
  "times</w>": 4584,
  "tin": 4585,
  "ting</w>": 4586,
  "tiny</w>": 4587,
  "tion": 4588,
  "tion,</w>": 4589,
  "tion.</w>": 4590,
  "tion</w>": 4591,
  "tional</w>": 4592,
  "tions</w>": 4593,
  "tit": 4594,
  "title</w>": 4595,
  "tiv": 4596,
  "tive</w>": 4597,
  "tively</w>": 4598,
  "tly.</w>": 4599,
  "tly</w>": 4600,
  "to": 4601,
  "to,</w>": 4602,
  "to--</w>": 4603,
  "to...</w>": 4604,
  "to.</w>": 4605,
  "to</w>": 4606,
  "today's</w>": 4607,
  "today,</w>": 4608,
  "today.</w>": 4609,
  "today</w>": 4610,
  "today?</w>": 4611,
  "together": 4612,
  "together.</w>": 4613,
  "together</w>": 4614,
  "tok": 4615,
  "tok</w>": 4616,
  "told</w>": 4617,
  "tom": 4618,
  "tomorrow": 4619,
  "tomorrow</w>": 4620,
  "ton": 4621,
  "ton</w>": 4622,
  "tonic</w>": 4623,
  "too": 4624,
  "too.</w>": 4625,
  "too</w>": 4626,
  "took</w>": 4627,
  "tool</w>": 4628,
  "tools</w>": 4629,
  "top": 4630,
  "top</w>": 4631,
  "topic</w>": 4632,
  "tor</w>": 4633,
  "tors</w>": 4634,
  "tot": 4635,
  "total</w>": 4636,
  "totally</w>": 4637,
  "tou": 4638,
  "touch</w>": 4639,
  "tough</w>": 4640,
  "tow": 4641,
  "towards</w>": 4642,
  "town</w>": 4643,
  "tr": 4644,
  "tra": 4645,
  "tra</w>": 4646,
  "track</w>": 4647,
  "traction</w>": 4648,
  "trad": 4649,
  "trade</w>": 4650,
  "trading</w>": 4651,
  "traditional</w>": 4652,
  "traff": 4653,
  "traffic</w>": 4654,
  "train": 4655,
  "train</w>": 4656,
  "trained</w>": 4657,
  "training</w>": 4658,
  "tran": 4659,
  "trans": 4660,
  "transaction</w>": 4661,
  "transactions</w>": 4662,
  "transform": 4663,
  "transformer</w>": 4664,
  "transition</w>": 4665,
  "trav": 4666,
  "travel": 4667,
  "travel</w>": 4668,
  "tre": 4669,
  "treat</w>": 4670,
  "trend</w>": 4671,
  "trends</w>": 4672,
  "tri": 4673,
  "tric": 4674,
  "tried</w>": 4675,
  "trig": 4676,
  "trillion</w>": 4677,
  "tro": 4678,
  "trouble</w>": 4679,
  "tru": 4680,
  "true.</w>": 4681,
  "true</w>": 4682,
  "truly</w>": 4683,
  "trump</w>": 4684,
  "trust</w>": 4685,
  "truth</w>": 4686,
  "try</w>": 4687,
  "trying</w>": 4688,
  "ts,</w>": 4689,
  "ts.</w>": 4690,
  "ts</w>": 4691,
  "tt": 4692,
  "tter</w>": 4693,
  "tting</w>": 4694,
  "ttle</w>": 4695,
  "tty</w>": 4696,
  "tu": 4697,
  "tual</w>": 4698,
  "tun": 4699,
  "tur": 4700,
  "tural</w>": 4701,
  "ture</w>": 4702,
  "tures</w>": 4703,
  "turn</w>": 4704,
  "turned</w>": 4705,
  "tv": 4706,
  "tv</w>": 4707,
  "tw": 4708,
  "twe": 4709,
  "twice</w>": 4710,
  "twit": 4711,
  "twitter</w>": 4712,
  "two,</w>": 4713,
  "two</w>": 4714,
  "ty": 4715,
  "ty</w>": 4716,
  "typ": 4717,
  "type</w>": 4718,
  "types</w>": 4719,
  "typic": 4720,
  "typical</w>": 4721,
  "typically</w>": 4722,
  "u": 4723,
  "u.": 4724,
  "u.s</w>": 4725,
  "u</w>": 4726,
  "uber</w>": 4727,
  "uc": 4728,
  "uch</w>": 4729,
  "uck</w>": 4730,
  "ude</w>": 4731,
  "ue</w>": 4732,
  "ug": 4733,
  "ug</w>": 4734,
  "ugh": 4735,
  "ught</w>": 4736,
  "uh,</w>": 4737,
  "uh</w>": 4738,
  "uk</w>": 4739,
  "ul": 4740,
  "ular</w>": 4741,
  "ulate</w>": 4742,
  "ulation</w>": 4743,
  "ult</w>": 4744,
  "ultim": 4745,
  "ultimately</w>": 4746,
  "um": 4747,
  "um,</w>": 4748,
  "um</w>": 4749,
  "umb": 4750,
  "ument</w>": 4751,
  "ump</w>": 4752,
  "un": 4753,
  "un</w>": 4754,
  "uncle</w>": 4755,
  "und": 4756,
  "under": 4757,
  "under</w>": 4758,
  "underst": 4759,
  "understand</w>": 4760,
  "understanding</w>": 4761,
  "understood</w>": 4762,
  "unfortunately</w>": 4763,
  "uni": 4764,
  "unique</w>": 4765,
  "unit</w>": 4766,
  "united</w>": 4767,
  "univers": 4768,
  "university</w>": 4769,
  "unk</w>": 4770,
  "unless</w>": 4771,
  "unlike</w>": 4772,
  "unreal</w>": 4773,
  "until</w>": 4774,
  "up": 4775,
  "up,</w>": 4776,
  "up.</w>": 4777,
  "up</w>": 4778,
  "upi</w>": 4779,
  "upon</w>": 4780,
  "ups</w>": 4781,
  "ur": 4782,
  "ur</w>": 4783,
  "ure</w>": 4784,
  "ures</w>": 4785,
  "us": 4786,
  "us,</w>": 4787,
  "us.</w>": 4788,
  "us</w>": 4789,
  "use": 4790,
  "use,</w>": 4791,
  "use</w>": 4792,
  "used</w>": 4793,
  "useful</w>": 4794,
  "user</w>": 4795,
  "users</w>": 4796,
  "uses</w>": 4797,
  "using</w>": 4798,
  "usion</w>": 4799,
  "ust</w>": 4800,
  "usu": 4801,
  "usual</w>": 4802,
  "usually</w>": 4803,
  "utili": 4804,
  "v": 4805,
  "v</w>": 4806,
  "val": 4807,
  "val</w>": 4808,
  "valid": 4809,
  "validation</w>": 4810,
  "valle": 4811,
  "valley</w>": 4812,
  "valu": 4813,
  "valuable</w>": 4814,
  "valuation</w>": 4815,
  "value</w>": 4816,
  "values</w>": 4817,
  "vari": 4818,
  "various</w>": 4819,
  "vc</w>": 4820,
  "ve": 4821,
  "ve,</w>": 4822,
  "ve.</w>": 4823,
  "ve</w>": 4824,
  "ved</w>": 4825,
  "vege": 4826,
  "vehic": 4827,
  "vehicle</w>": 4828,
  "vehicles</w>": 4829,
  "vely</w>": 4830,
  "vement</w>": 4831,
  "ven": 4832,
  "ven</w>": 4833,
  "venture</w>": 4834,
  "ver": 4835,
  "ver</w>": 4836,
  "vered</w>": 4837,
  "vering</w>": 4838,
  "vern": 4839,
  "vers": 4840,
  "vers</w>": 4841,
  "verse</w>": 4842,
  "versi": 4843,
  "version</w>": 4844,
  "versus</w>": 4845,
  "verti": 4846,
  "very,</w>": 4847,
  "very</w>": 4848,
  "ves</w>": 4849,
  "vi": 4850,
  "vid</w>": 4851,
  "vide": 4852,
  "video</w>": 4853,
  "videos</w>": 4854,
  "vie": 4855,
  "view": 4856,
  "view</w>": 4857,
  "viewing</w>": 4858,
  "views</w>": 4859,
  "vill": 4860,
  "village</w>": 4861,
  "ving</w>": 4862,
  "vious</w>": 4863,
  "vir": 4864,
  "virtu": 4865,
  "virtual</w>": 4866,
  "virtue</w>": 4867,
  "vis": 4868,
  "vision</w>": 4869,
  "vit": 4870,
  "vo": 4871,
  "voice</w>": 4872,
  "vol": 4873,
  "volu": 4874,
  "volume</w>": 4875,
  "volution</w>": 4876,
  "vr</w>": 4877,
  "vul": 4878,
  "vulner": 4879,
  "vy</w>": 4880,
  "w": 4881,
  "w</w>": 4882,
  "wa": 4883,
  "wait</w>": 4884,
  "wake</w>": 4885,
  "wal": 4886,
  "walk</w>": 4887,
  "walking</w>": 4888,
  "wall</w>": 4889,
  "wan": 4890,
  "wanna</w>": 4891,
  "want</w>": 4892,
  "wanted</w>": 4893,
  "wanting</w>": 4894,
  "wants</w>": 4895,
  "war": 4896,
  "war</w>": 4897,
  "ward</w>": 4898,
  "wards</w>": 4899,
  "was,</w>": 4900,
  "was</w>": 4901,
  "wasn't</w>": 4902,
  "waste</w>": 4903,
  "wat": 4904,
  "watch</w>": 4905,
  "watched</w>": 4906,
  "watching</w>": 4907,
  "water</w>": 4908,
  "wave</w>": 4909,
  "way": 4910,
  "way,</w>": 4911,
  "way.</w>": 4912,
  "way</w>": 4913,
  "ways</w>": 4914,
  "we": 4915,
  "we'd</w>": 4916,
  "we'll</w>": 4917,
  "we're</w>": 4918,
  "we've</w>": 4919,
  "we</w>": 4920,
  "wea": 4921,
  "wealth": 4922,
  "wealth</w>": 4923,
  "wealthy</w>": 4924,
  "wear": 4925,
  "wear</w>": 4926,
  "wearing</w>": 4927,
  "web": 4928,
  "web</w>": 4929,
  "website</w>": 4930,
  "wed": 4931,
  "wee": 4932,
  "week": 4933,
  "week</w>": 4934,
  "weeks</w>": 4935,
  "weight</w>": 4936,
  "weird</w>": 4937,
  "wel": 4938,
  "well": 4939,
  "well,</w>": 4940,
  "well.</w>": 4941,
  "well</w>": 4942,
  "went</w>": 4943,
  "were</w>": 4944,
  "weren't</w>": 4945,
  "west</w>": 4946,
  "western</w>": 4947,
  "wh": 4948,
  "what": 4949,
  "what's</w>": 4950,
  "what</w>": 4951,
  "what?</w>": 4952,
  "whatever": 4953,
  "whatever</w>": 4954,
  "whatsapp</w>": 4955,
  "whe": 4956,
  "wheel": 4957,
  "when": 4958,
  "when</w>": 4959,
  "whenever</w>": 4960,
  "where": 4961,
  "where,</w>": 4962,
  "where</w>": 4963,
  "whereas</w>": 4964,
  "wherever</w>": 4965,
  "whether</w>": 4966,
  "which": 4967,
  "which,</w>": 4968,
  "which</w>": 4969,
  "whil": 4970,
  "while</w>": 4971,
  "whis": 4972,
  "whiskey</w>": 4973,
  "white</w>": 4974,
  "who": 4975,
  "who's</w>": 4976,
  "who</w>": 4977,
  "whoever</w>": 4978,
  "whole</w>": 4979,
  "why</w>": 4980,
  "why?</w>": 4981,
  "wi": 4982,
  "wide</w>": 4983,
  "wife</w>": 4984,
  "wil": 4985,
  "wild</w>": 4986,
  "will": 4987,
  "will</w>": 4988,
  "willing</w>": 4989,
  "win": 4990,
  "win</w>": 4991,
  "wind": 4992,
  "wind</w>": 4993,
  "wine</w>": 4994,
  "winning</w>": 4995,
  "wise</w>": 4996,
  "wish</w>": 4997,
  "with": 4998,
  "with,</w>": 4999,
  "with</w>": 5000,
  "within</w>": 5001,
  "without</w>": 5002,
  "wom": 5003,
  "woman</w>": 5004,
  "women</w>": 5005,
  "won": 5006,
  "won't</w>": 5007,
  "wonder": 5008,
  "wonderful</w>": 5009,
  "wor": 5010,
  "word</w>": 5011,
  "words</w>": 5012,
  "work": 5013,
  "work,</w>": 5014,
  "work.</w>": 5015,
  "work</w>": 5016,
  "worked</w>": 5017,
  "working</w>": 5018,
  "works.</w>": 5019,
  "works</w>": 5020,
  "worl": 5021,
  "world": 5022,
  "world's</w>": 5023,
  "world,</w>": 5024,
  "world.</w>": 5025,
  "world</w>": 5026,
  "worried</w>": 5027,
  "worry</w>": 5028,
  "worse</w>": 5029,
  "worst</w>": 5030,
  "worth</w>": 5031,
  "woul": 5032,
  "would</w>": 5033,
  "wouldn't</w>": 5034,
  "wow": 5035,
  "wow.</w>": 5036,
  "wow</w>": 5037,
  "wr": 5038,
  "writ": 5039,
  "write</w>": 5040,
  "writing</w>": 5041,
  "written</w>": 5042,
  "wrong": 5043,
  "wrong</w>": 5044,
  "wrote</w>": 5045,
  "ws</w>": 5046,
  "x": 5047,
  "x,</w>": 5048,
  "x.</w>": 5049,
  "x</w>": 5050,
  "xed</w>": 5051,
  "xes</w>": 5052,
  "xi": 5053,
  "y": 5054,
  "y's</w>": 5055,
  "y,</w>": 5056,
  "y...</w>": 5057,
  "y.</w>": 5058,
  "y</w>": 5059,
  "y?</w>": 5060,
  "yal": 5061,
  "ye": 5062,
  "ye</w>": 5063,
  "yea": 5064,
  "yeah,</w>": 5065,
  "yeah.</w>": 5066,
  "yeah</w>": 5067,
  "yeah?</w>": 5068,
  "year": 5069,
  "year,</w>": 5070,
  "year-old</w>": 5071,
  "year.</w>": 5072,
  "year</w>": 5073,
  "years,</w>": 5074,
  "years.</w>": 5075,
  "years</w>": 5076,
  "yed</w>": 5077,
  "yes,</w>": 5078,
  "yes.</w>": 5079,
  "yes</w>": 5080,
  "yester": 5081,
  "yesterday</w>": 5082,
  "yet</w>": 5083,
  "ying</w>": 5084,
  "yment</w>": 5085,
  "yor": 5086,
  "york</w>": 5087,
  "you": 5088,
  "you'd</w>": 5089,
  "you'll</w>": 5090,
  "you're</w>": 5091,
  "you've</w>": 5092,
  "you,</w>": 5093,
  "you.</w>": 5094,
  "you</w>": 5095,
  "you?</w>": 5096,
  "youn": 5097,
  "young": 5098,
  "young</w>": 5099,
  "younger</w>": 5100,
  "your": 5101,
  "your</w>": 5102,
  "yours</w>": 5103,
  "yourself</w>": 5104,
  "youth</w>": 5105,
  "youtu": 5106,
  "youtube</w>": 5107,
  "yp": 5108,
  "ys": 5109,
  "ys</w>": 5110,
  "yw": 5111,
  "ywood</w>": 5112,
  "z": 5113,
  "z</w>": 5114,
  "zara</w>": 5115,
  "ze</w>": 5116,
  "zeal": 5117,
  "zed</w>": 5118,
  "zer": 5119,
  "zero</w>": 5120,
  "zone</w>": 5121,
  "|": 5122,
  "°": 5123,
  "é": 5124,
  "ē</w>": 5125,
  "ं": 5126,
  "ं</w>": 5127,
  "ंक</w>": 5128,
  "ंकिंग</w>": 5129,
  "ंग": 5130,
  "ंग</w>": 5131,
  "ंगा</w>": 5132,
  "ंगा।</w>": 5133,
  "ंगी</w>": 5134,
  "ंगे</w>": 5135,
  "ंगे।</w>": 5136,
  "ंग्": 5137,
  "ंग्स</w>": 5138,
  "ंग।</w>": 5139,
  "ंच</w>": 5140,
  "ंट</w>": 5141,
  "ंटर</w>": 5142,
  "ंट्स</w>": 5143,
  "ंड": 5144,
  "ंड</w>": 5145,
  "ंडिंग</w>": 5146,
  "ंड्स</w>": 5147,
  "ंद": 5148,
  "ंप</w>": 5149,
  "ंस</w>": 5150,
  "ंसि": 5151,
  "ं।</w>": 5152,
  "अ": 5153,
  "अ</w>": 5154,
  "अं": 5155,
  "अंडर": 5156,
  "अंडर</w>": 5157,
  "अंडरस्टै": 5158,
  "अंडरस्टैंड</w>": 5159,
  "अंडरस्टैंडिंग</w>": 5160,
  "अंदर</w>": 5161,
  "अकाउंट</w>": 5162,
  "अक्रॉस</w>": 5163,
  "अग": 5164,
  "अगर</w>": 5165,
  "अगले</w>": 5166,
  "अगेन</w>": 5167,
  "अच्छ": 5168,
  "अच्छा</w>": 5169,
  "अच्छी</w>": 5170,
  "अच्छे</w>": 5171,
  "अट्रै": 5172,
  "अट्रैक्ट</w>": 5173,
  "अदर</w>": 5174,
  "अन": 5175,
  "अनदर</w>": 5176,
  "अप": 5177,
  "अप</w>": 5178,
  "अपना</w>": 5179,
  "अपनी</w>": 5180,
  "अपने</w>": 5181,
  "अपॉ": 5182,
  "अपॉर्चुनिटी</w>": 5183,
  "अपो": 5184,
  "अब": 5185,
  "अब</w>": 5186,
  "अबाउट</w>": 5187,
  "अभी</w>": 5188,
  "अमाउंट</w>": 5189,
  "अमे": 5190,
  "अमेरि": 5191,
  "अमेरिकन</w>": 5192,
  "अमेरिका</w>": 5193,
  "अर</w>": 5194,
  "अराउंड</w>": 5195,
  "अरे</w>": 5196,
  "अर्": 5197,
  "अर्ली</w>": 5198,
  "अलग-अलग</w>": 5199,
  "अलग</w>": 5200,
  "अला": 5201,
  "अल्": 5202,
  "अल्ट्रा</w>": 5203,
  "अवे": 5204,
  "अवेले": 5205,
  "अवेलेबल</w>": 5206,
  "अस</w>": 5207,
  "अह</w>": 5208,
  "आ": 5209,
  "आ</w>": 5210,
  "आं": 5211,
  "आंसर</w>": 5212,
  "आइ": 5213,
  "आइडि": 5214,
  "आई": 5215,
  "आई</w>": 5216,
  "आईटी</w>": 5217,
  "आईडिया</w>": 5218,
  "आईपी": 5219,
  "आईपी</w>": 5220,
  "आईपीओ</w>": 5221,
  "आई।</w>": 5222,
  "आउ": 5223,
  "आउट": 5224,
  "आउट</w>": 5225,
  "आए": 5226,
  "आए</w>": 5227,
  "आएंगे</w>": 5228,
  "आएगा</w>": 5229,
  "आके</w>": 5230,
  "आगे</w>": 5231,
  "आज</w>": 5232,
  "आता</w>": 5233,
  "आती</w>": 5234,
  "आते</w>": 5235,
  "आद": 5236,
  "आदमी</w>": 5237,
  "आना</w>": 5238,
  "आने</w>": 5239,
  "आप": 5240,
  "आप</w>": 5241,
  "आपका</w>": 5242,
  "आपकी</w>": 5243,
  "आपके</w>": 5244,
  "आपको</w>": 5245,
  "आपने</w>": 5246,
  "आफ्टर</w>": 5247,
  "आया</w>": 5248,
  "आर": 5249,
  "आर</w>": 5250,
  "आरबीआई</w>": 5251,
  "आर्": 5252,
  "आल्": 5253,
  "आल्सो</w>": 5254,
  "आवर</w>": 5255,
  "आवर्स</w>": 5256,
  "आस्": 5257,
  "आस्क</w>": 5258,
  "इ": 5259,
  "इ</w>": 5260,
  "इं": 5261,
  "इंक्री": 5262,
  "इंग</w>": 5263,
  "इंजीनि": 5264,
  "इंजीनियरिंग</w>": 5265,
  "इंट": 5266,
  "इंटर": 5267,
  "इंटरे": 5268,
  "इंटरेस्ट</w>": 5269,
  "इंटरेस्टिंग</w>": 5270,
  "इंटू</w>": 5271,
  "इंड": 5272,
  "इंडस्ट्री</w>": 5273,
  "इंडि": 5274,
  "इंडियंस</w>": 5275,
  "इंडियन</w>": 5276,
  "इंडिया</w>": 5277,
  "इंडिविजुअ": 5278,
  "इंडिविजुअल</w>": 5279,
  "इंपै": 5280,
  "इंपैक्ट</w>": 5281,
  "इंपॉ": 5282,
  "इंपॉर्टेंट</w>": 5283,
  "इंपो": 5284,
  "इंफॉर्मेशन</w>": 5285,
  "इंफ्रा": 5286,
  "इंफ्रास्ट्रक्चर</w>": 5287,
  "इंश्यो": 5288,
  "इंश्योरेंस</w>": 5289,
  "इंसान</w>": 5290,
  "इकॉन": 5291,
  "इकॉनमी</w>": 5292,
  "इको": 5293,
  "इकोसिस्टम</w>": 5294,
  "इक्वि": 5295,
  "इक्विटी</w>": 5296,
  "इज</w>": 5297,
  "इज़</w>": 5298,
  "इजी</w>": 5299,
  "इट": 5300,
  "इट</w>": 5301,
  "इट्स</w>": 5302,
  "इट।</w>": 5303,
  "इतना</w>": 5304,
  "इतनी</w>": 5305,
  "इतने</w>": 5306,
  "इधर</w>": 5307,
  "इन": 5308,
  "इन</w>": 5309,
  "इनकम</w>": 5310,
  "इनके</w>": 5311,
  "इनफ</w>": 5312,
  "इनफैक्ट</w>": 5313,
  "इनो": 5314,
  "इनोवे": 5315,
  "इनोवेशन</w>": 5316,
  "इन्": 5317,
  "इन्वे": 5318,
  "इन्वेस्ट": 5319,
  "इन्वेस्ट</w>": 5320,
  "इन्वेस्टमेंट</w>": 5321,
  "इन्वेस्टर</w>": 5322,
  "इन्वेस्टर्स</w>": 5323,
  "इन्वेस्टिंग</w>": 5324,
  "इफ</w>": 5325,
  "इफे": 5326,
  "इम": 5327,
  "इमरजेंसी</w>": 5328,
  "इमे": 5329,
  "इमेजिन</w>": 5330,
  "इमो": 5331,
  "इयर्स</w>": 5332,
  "इले": 5333,
  "इवन</w>": 5334,
  "इवें": 5335,
  "इवेंट</w>": 5336,
  "इश": 5337,
  "इस": 5338,
  "इस</w>": 5339,
  "इसका</w>": 5340,
  "इसकी</w>": 5341,
  "इसके</w>": 5342,
  "इसको</w>": 5343,
  "इसमें</w>": 5344,
  "इसलिए</w>": 5345,
  "इससे</w>": 5346,
  "इसीलिए</w>": 5347,
  "इज़</w>": 5348,
  "ई": 5349,
  "ई</w>": 5350,
  "ईओ</w>": 5351,
  "ईच</w>": 5352,
  "ईमेल</w>": 5353,
  "ईयर</w>": 5354,
  "ईस्ट</w>": 5355,
  "ई।</w>": 5356,
  "उ": 5357,
  "उ</w>": 5358,
  "उंड</w>": 5359,
  "उट</w>": 5360,
  "उठ": 5361,
  "उतना</w>": 5362,
  "उतने</w>": 5363,
  "उथ</w>": 5364,
  "उधर</w>": 5365,
  "उन": 5366,
  "उन</w>": 5367,
  "उनका</w>": 5368,
  "उनकी</w>": 5369,
  "उनके</w>": 5370,
  "उनको</w>": 5371,
  "उनसे</w>": 5372,
  "उन्": 5373,
  "उन्हें</w>": 5374,
  "उन्होंने</w>": 5375,
  "उस": 5376,
  "उस</w>": 5377,
  "उसका</w>": 5378,
  "उसकी</w>": 5379,
  "उसके</w>": 5380,
  "उसको</w>": 5381,
  "उसने</w>": 5382,
  "उसमें</w>": 5383,
  "उससे</w>": 5384,
  "उसी</w>": 5385,
  "उसे</w>": 5386,
  "ऊ": 5387,
  "ऊंगा</w>": 5388,
  "ऊपर</w>": 5389,
  "ऍ": 5390,
  "ए": 5391,
  "ए</w>": 5392,
  "एं": 5393,
  "एंजॉ": 5394,
  "एंजॉय</w>": 5395,
  "एंटर": 5396,
  "एंटरप्रेन्": 5397,
  "एंटरप्रेन्योर</w>": 5398,
  "एंट्री</w>": 5399,
  "एंड</w>": 5400,
  "एआई</w>": 5401,
  "एक": 5402,
  "एक</w>": 5403,
  "एकदम</w>": 5404,
  "एक्": 5405,
  "एक्चुअ": 5406,
  "एक्चुअली</w>": 5407,
  "एक्स": 5408,
  "एक्स</w>": 5409,
  "एक्सपीरियं": 5410,
  "एक्सपीरियंस</w>": 5411,
  "एक्सपे": 5412,
  "एक्सपें": 5413,
  "एक्सपेंसिव</w>": 5414,
  "एक्सप्लेन</w>": 5415,
  "एक्सेस</w>": 5416,
  "एग्": 5417,
  "एग्जा": 5418,
  "एग्जांपल</w>": 5419,
  "एग्र": 5420,
  "एज": 5421,
  "एज</w>": 5422,
  "एज़</w>": 5423,
  "एजु": 5424,
  "एजुकेशन</w>": 5425,
  "एजें": 5426,
  "एजेंट</w>": 5427,
  "एजेंट्स</w>": 5428,
  "एट": 5429,
  "एट</w>": 5430,
  "एटलीस्ट</w>": 5431,
  "एड": 5432,
  "एडवाइ": 5433,
  "एडवाइस</w>": 5434,
  "एन": 5435,
  "एन</w>": 5436,
  "एनर्": 5437,
  "एनर्जी</w>": 5438,
  "एनी": 5439,
  "एनी</w>": 5440,
  "एनीथिंग</w>": 5441,
  "एपि": 5442,
  "एपिसोड</w>": 5443,
  "एफ": 5444,
  "एफ</w>": 5445,
  "एफडी</w>": 5446,
  "एबल</w>": 5447,
  "एबिलिटी</w>": 5448,
  "एम": 5449,
  "एम</w>": 5450,
  "एयर": 5451,
  "एरि": 5452,
  "एरिया</w>": 5453,
  "एल": 5454,
  "एलएल": 5455,
  "एल्स</w>": 5456,
  "एव": 5457,
  "एवर</w>": 5458,
  "एवरी": 5459,
  "एवरी</w>": 5460,
  "एवरीथिंग</w>": 5461,
  "एवरीबडी</w>": 5462,
  "एवरेज</w>": 5463,
  "एव्री</w>": 5464,
  "एशन</w>": 5465,
  "एस": 5466,
  "एस</w>": 5467,
  "एसेट</w>": 5468,
  "एसेट्स</w>": 5469,
  "एस्ट</w>": 5470,
  "ए।</w>": 5471,
  "ऐ": 5472,
  "ऐड</w>": 5473,
  "ऐसा</w>": 5474,
  "ऐसी</w>": 5475,
  "ऐसे</w>": 5476,
  "ऑ": 5477,
  "ऑटो": 5478,
  "ऑन</w>": 5479,
  "ऑने": 5480,
  "ऑप": 5481,
  "ऑपरे": 5482,
  "ऑप्": 5483,
  "ऑप्शंस</w>": 5484,
  "ऑप्शन</w>": 5485,
  "ऑफ": 5486,
  "ऑफ</w>": 5487,
  "ऑफर</w>": 5488,
  "ऑफ़</w>": 5489,
  "ऑफि": 5490,
  "ऑफिस</w>": 5491,
  "ऑब्": 5492,
  "ऑब्वियसली</w>": 5493,
  "ऑयल</w>": 5494,
  "ऑर्": 5495,
  "ऑर्डर</w>": 5496,
  "ऑल": 5497,
  "ऑल</w>": 5498,
  "ऑलमोस्ट</w>": 5499,
  "ऑलरेडी</w>": 5500,
  "ऑलवेज</w>": 5501,
  "ऑफ़</w>": 5502,
  "ओ": 5503,
  "ओ</w>": 5504,
  "ओके": 5505,
  "ओके</w>": 5506,
  "ओके?</w>": 5507,
  "ओके।</w>": 5508,
  "ओगे</w>": 5509,
  "ओन": 5510,
  "ओन</w>": 5511,
  "ओनर</w>": 5512,
  "ओनली</w>": 5513,
  "ओपन</w>": 5514,
  "ओपो": 5515,
  "ओपोरर्चुनिटी</w>": 5516,
  "ओल्ड</w>": 5517,
  "ओवर": 5518,
  "ओवर</w>": 5519,
  "ओवरऑल</w>": 5520,
  "ओ।</w>": 5521,
  "औ": 5522,
  "और</w>": 5523,
  "क": 5524,
  "क</w>": 5525,
  "कं": 5526,
  "कंज्यू": 5527,
  "कंटेंट</w>": 5528,
  "कंट्र": 5529,
  "कंट्री</w>": 5530,
  "कंट्रीज</w>": 5531,
  "कंट्रोल</w>": 5532,
  "कंप": 5533,
  "कंपनी": 5534,
  "कंपनी</w>": 5535,
  "कंपनीज</w>": 5536,
  "कंपनीज़</w>": 5537,
  "कंपनीज़</w>": 5538,
  "कंपे": 5539,
  "कंपेयर</w>": 5540,
  "कंप्ली": 5541,
  "कंफर्": 5542,
  "कंफर्टेबल</w>": 5543,
  "कंसिस्ट": 5544,
  "कई</w>": 5545,
  "कट</w>": 5546,
  "कन</w>": 5547,
  "कने": 5548,
  "कनेक्ट</w>": 5549,
  "कन्": 5550,
  "कन्वर्": 5551,
  "कन्वर्सेशन</w>": 5552,
  "कप</w>": 5553,
  "कब</w>": 5554,
  "कभी</w>": 5555,
  "कम": 5556,
  "कम</w>": 5557,
  "कमा": 5558,
  "कमा</w>": 5559,
  "कमिंग</w>": 5560,
  "कम्": 5561,
  "कम्युनि": 5562,
  "कम्युनिटी</w>": 5563,
  "कम्स</w>": 5564,
  "कर": 5565,
  "कर</w>": 5566,
  "करंट</w>": 5567,
  "करके</w>": 5568,
  "करता</w>": 5569,
  "करती</w>": 5570,
  "करते</w>": 5571,
  "करना</w>": 5572,
  "करनी</w>": 5573,
  "करने</w>": 5574,
  "करा</w>": 5575,
  "करी</w>": 5576,
  "करू": 5577,
  "करूं</w>": 5578,
  "करूंगा</w>": 5579,
  "करे": 5580,
  "करे</w>": 5581,
  "करें</w>": 5582,
  "करेंगे</w>": 5583,
  "करेंगे।</w>": 5584,
  "करेंसी</w>": 5585,
  "करेक्ट</w>": 5586,
  "करेक्ट।</w>": 5587,
  "करेगा</w>": 5588,
  "करेगा।</w>": 5589,
  "करो": 5590,
  "करो</w>": 5591,
  "करोगे</w>": 5592,
  "करोड़</w>": 5593,
  "करो।</w>": 5594,
  "कल</w>": 5595,
  "कली</w>": 5596,
  "कले": 5597,
  "कल्": 5598,
  "कल्चर</w>": 5599,
  "कस्टम": 5600,
  "कस्टमर</w>": 5601,
  "कस्टमर्स</w>": 5602,
  "कह": 5603,
  "कहा</w>": 5604,
  "कहां</w>": 5605,
  "कहीं</w>": 5606,
  "का": 5607,
  "का</w>": 5608,
  "कां": 5609,
  "कांट</w>": 5610,
  "काइंड</w>": 5611,
  "काउ": 5612,
  "काउंट</w>": 5613,
  "कान</w>": 5614,
  "काफी</w>": 5615,
  "काम</w>": 5616,
  "कार</w>": 5617,
  "कार्": 5618,
  "कार्ड</w>": 5619,
  "कार्ड्स</w>": 5620,
  "कास्ट</w>": 5621,
  "का।</w>": 5622,
  "कि": 5623,
  "कि</w>": 5624,
  "किंग</w>": 5625,
  "किए</w>": 5626,
  "कितना</w>": 5627,
  "कितनी</w>": 5628,
  "कितने</w>": 5629,
  "किन</w>": 5630,
  "किया</w>": 5631,
  "किया।</w>": 5632,
  "किल</w>": 5633,
  "किशोर</w>": 5634,
  "किस": 5635,
  "किस</w>": 5636,
  "किसी</w>": 5637,
  "की": 5638,
  "की</w>": 5639,
  "कीप</w>": 5640,
  "कु": 5641,
  "कुछ</w>": 5642,
  "कुड</w>": 5643,
  "के": 5644,
  "के</w>": 5645,
  "केट</w>": 5646,
  "केम</w>": 5647,
  "केशन</w>": 5648,
  "केस</w>": 5649,
  "केसेस</w>": 5650,
  "कै": 5651,
  "कैटेग": 5652,
  "कैन</w>": 5653,
  "कैप</w>": 5654,
  "कैपि": 5655,
  "कैपिटल</w>": 5656,
  "कैपे": 5657,
  "कैरेट</w>": 5658,
  "कैश</w>": 5659,
  "कैसे</w>": 5660,
  "कॉ": 5661,
  "कॉइन</w>": 5662,
  "कॉन": 5663,
  "कॉन्": 5664,
  "कॉन्टेक्स्ट</w>": 5665,
  "कॉन्फि": 5666,
  "कॉपी</w>": 5667,
  "कॉमन</w>": 5668,
  "कॉम्": 5669,
  "कॉर्": 5670,
  "कॉर्पो": 5671,
  "कॉर्पोरेट</w>": 5672,
  "कॉल</w>": 5673,
  "कॉल्ड</w>": 5674,
  "कॉस्ट</w>": 5675,
  "को": 5676,
  "को</w>": 5677,
  "कोई</w>": 5678,
  "कोड</w>": 5679,
  "कोर</w>": 5680,
  "कोर्स</w>": 5681,
  "कोविड</w>": 5682,
  "कोशिश</w>": 5683,
  "को।</w>": 5684,
  "कौ": 5685,
  "कौन</w>": 5686,
  "क्": 5687,
  "क्चर</w>": 5688,
  "क्ट</w>": 5689,
  "क्टर</w>": 5690,
  "क्टली</w>": 5691,
  "क्टि": 5692,
  "क्टिव</w>": 5693,
  "क्ट्स</w>": 5694,
  "क्ट।</w>": 5695,
  "क्ड</w>": 5696,
  "क्या": 5697,
  "क्या</w>": 5698,
  "क्या?</w>": 5699,
  "क्यू": 5700,
  "क्यों": 5701,
  "क्यों</w>": 5702,
  "क्योंकि</w>": 5703,
  "क्र": 5704,
  "क्रि": 5705,
  "क्रिए": 5706,
  "क्रिएट</w>": 5707,
  "क्रिकेट</w>": 5708,
  "क्रिप्": 5709,
  "क्रिप्टो</w>": 5710,
  "क्री": 5711,
  "क्रे": 5712,
  "क्रेजी</w>": 5713,
  "क्रेडि": 5714,
  "क्रेडिट</w>": 5715,
  "क्रै": 5716,
  "क्रॉ": 5717,
  "क्रॉस</w>": 5718,
  "क्लाइ": 5719,
  "क्लाइंट</w>": 5720,
  "क्लाइंट्स</w>": 5721,
  "क्लास</w>": 5722,
  "क्लि": 5723,
  "क्लियर</w>": 5724,
  "क्लू": 5725,
  "क्ले": 5726,
  "क्लेरिटी</w>": 5727,
  "क्लो": 5728,
  "क्लोज</w>": 5729,
  "क्व": 5730,
  "क्वा": 5731,
  "क्वालिटी</w>": 5732,
  "क्वि": 5733,
  "क्वे": 5734,
  "क्वेश्च": 5735,
  "क्वेश्चन</w>": 5736,
  "क्शन</w>": 5737,
  "क्स</w>": 5738,
  "क्सि": 5739,
  "क।</w>": 5740,
  "ख": 5741,
  "ख</w>": 5742,
  "खत्": 5743,
  "खत्म</w>": 5744,
  "खरी": 5745,
  "खरीद": 5746,
  "खरीद</w>": 5747,
  "खरीदते</w>": 5748,
  "खरीदना</w>": 5749,
  "खर्": 5750,
  "खर्चा</w>": 5751,
  "खा": 5752,
  "खा</w>": 5753,
  "खाली</w>": 5754,
  "खु": 5755,
  "खुद</w>": 5756,
  "खे": 5757,
  "ख्याल</w>": 5758,
  "ग": 5759,
  "ग</w>": 5760,
  "गई</w>": 5761,
  "गई।</w>": 5762,
  "गए</w>": 5763,
  "गट</w>": 5764,
  "गया</w>": 5765,
  "गया।</w>": 5766,
  "गर</w>": 5767,
  "गरी": 5768,
  "गरीब</w>": 5769,
  "गल": 5770,
  "गल</w>": 5771,
  "गलत</w>": 5772,
  "गवर्": 5773,
  "गवर्नमेंट</w>": 5774,
  "गा": 5775,
  "गा</w>": 5776,
  "गा?</w>": 5777,
  "गाइ": 5778,
  "गाय</w>": 5779,
  "गा।</w>": 5780,
  "गि": 5781,
  "गिव</w>": 5782,
  "गिविंग</w>": 5783,
  "गी</w>": 5784,
  "गी।</w>": 5785,
  "गु": 5786,
  "गुड</w>": 5787,
  "गे": 5788,
  "गे</w>": 5789,
  "गेट</w>": 5790,
  "गेटिंग</w>": 5791,
  "गेम</w>": 5792,
  "गेस्ट</w>": 5793,
  "गै": 5794,
  "गॉ": 5795,
  "गॉट</w>": 5796,
  "गॉन</w>": 5797,
  "गो": 5798,
  "गो</w>": 5799,
  "गोइंग</w>": 5800,
  "गोना</w>": 5801,
  "गोल</w>": 5802,
  "गोल्ड</w>": 5803,
  "ग्": 5804,
  "ग्र": 5805,
  "ग्रा": 5806,
  "ग्राउंड</w>": 5807,
  "ग्रुप</w>": 5808,
  "ग्रे": 5809,
  "ग्रेट</w>": 5810,
  "ग्रो": 5811,
  "ग्रो</w>": 5812,
  "ग्रोइंग</w>": 5813,
  "ग्रोथ</w>": 5814,
  "ग्रोन</w>": 5815,
  "ग्लो": 5816,
  "ग्लोबल</w>": 5817,
  "घ": 5818,
  "घं": 5819,
  "घंटे</w>": 5820,
  "घर</w>": 5821,
  "घु": 5822,
  "च": 5823,
  "च</w>": 5824,
  "चर</w>": 5825,
  "चल": 5826,
  "चल</w>": 5827,
  "चलता</w>": 5828,
  "चला</w>": 5829,
  "चले</w>": 5830,
  "चलो</w>": 5831,
  "चा": 5832,
  "चा</w>": 5833,
  "चाइ": 5834,
  "चाइना</w>": 5835,
  "चाइनी": 5836,
  "चाइनीस</w>": 5837,
  "चार</w>": 5838,
  "चालू</w>": 5839,
  "चाह": 5840,
  "चाहता</w>": 5841,
  "चाहते</w>": 5842,
  "चाहिए": 5843,
  "चाहिए</w>": 5844,
  "चाहिए।</w>": 5845,
  "चाहे</w>": 5846,
  "चि": 5847,
  "चिंग</w>": 5848,
  "ची": 5849,
  "चीज": 5850,
  "चीज</w>": 5851,
  "चीजें</w>": 5852,
  "चीजों</w>": 5853,
  "चु": 5854,
  "चुअ": 5855,
  "चुअल</w>": 5856,
  "चुका</w>": 5857,
  "चुके</w>": 5858,
  "चू": 5859,
  "चे": 5860,
  "चे</w>": 5861,
  "चें": 5862,
  "चेंज</w>": 5863,
  "चेक</w>": 5864,
  "चेस</w>": 5865,
  "चै": 5866,
  "चैट</w>": 5867,
  "चैनल</w>": 5868,
  "चैलें": 5869,
  "चों</w>": 5870,
  "च्": 5871,
  "च्छ": 5872,
  "छ": 5873,
  "छ</w>": 5874,
  "छो": 5875,
  "छोटा</w>": 5876,
  "छोटी</w>": 5877,
  "छोटे</w>": 5878,
  "ज": 5879,
  "ज</w>": 5880,
  "जंट</w>": 5881,
  "जग": 5882,
  "जगह</w>": 5883,
  "जन": 5884,
  "जन</w>": 5885,
  "जनरली</w>": 5886,
  "जनरेशन</w>": 5887,
  "जब</w>": 5888,
  "जर</w>": 5889,
  "जरी</w>": 5890,
  "जरू": 5891,
  "जरूर</w>": 5892,
  "जरूरत</w>": 5893,
  "जरूरी</w>": 5894,
  "जर्": 5895,
  "जर्नी</w>": 5896,
  "जल्": 5897,
  "जल्दी</w>": 5898,
  "जस्ट</w>": 5899,
  "जहां</w>": 5900,
  "ज़": 5901,
  "ज़</w>": 5902,
  "ज़न</w>": 5903,
  "जा": 5904,
  "जा</w>": 5905,
  "जाए": 5906,
  "जाए</w>": 5907,
  "जाएंगे</w>": 5908,
  "जाएगा</w>": 5909,
  "जाएगा।</w>": 5910,
  "जाएगी</w>": 5911,
  "जाओ</w>": 5912,
  "जाओगे</w>": 5913,
  "जाके</w>": 5914,
  "जाता</w>": 5915,
  "जाती</w>": 5916,
  "जाते</w>": 5917,
  "जान": 5918,
  "जाना</w>": 5919,
  "जाने</w>": 5920,
  "जि": 5921,
  "जिंग</w>": 5922,
  "जिंदगी</w>": 5923,
  "जिए</w>": 5924,
  "जिक</w>": 5925,
  "जिकल</w>": 5926,
  "जिट</w>": 5927,
  "जितना</w>": 5928,
  "जितने</w>": 5929,
  "जिन": 5930,
  "जिन</w>": 5931,
  "जिनको</w>": 5932,
  "जिन्होंने</w>": 5933,
  "जिस": 5934,
  "जिस</w>": 5935,
  "जिसकी</w>": 5936,
  "जिसके</w>": 5937,
  "जिसको</w>": 5938,
  "जिसने</w>": 5939,
  "जिसमें</w>": 5940,
  "जिससे</w>": 5941,
  "जी": 5942,
  "जी</w>": 5943,
  "जीनि": 5944,
  "जीपी": 5945,
  "जीपीटी</w>": 5946,
  "जीरो</w>": 5947,
  "जी।</w>": 5948,
  "जुअ": 5949,
  "जे": 5950,
  "जेस</w>": 5951,
  "जेस्ट</w>": 5952,
  "जै": 5953,
  "जैसा</w>": 5954,
  "जैसे</w>": 5955,
  "जॉ": 5956,
  "जॉब</w>": 5957,
  "जॉब्स</w>": 5958,
  "जो</w>": 5959,
  "ज्": 5960,
  "ज्ड</w>": 5961,
  "ज्या": 5962,
  "ज्यादा</w>": 5963,
  "ज्वे": 5964,
  "ज्वेलरी</w>": 5965,
  "झ": 5966,
  "ञ": 5967,
  "ट": 5968,
  "ट</w>": 5969,
  "टन</w>": 5970,
  "टर": 5971,
  "टर</w>": 5972,
  "टर्": 5973,
  "टर्न": 5974,
  "टर्न</w>": 5975,
  "टर्न्स</w>": 5976,
  "टर्म</w>": 5977,
  "टर्म्स</w>": 5978,
  "टर्स</w>": 5979,
  "टल</w>": 5980,
  "टली</w>": 5981,
  "टल्स</w>": 5982,
  "टा": 5983,
  "टा</w>": 5984,
  "टाइ": 5985,
  "टाइप</w>": 5986,
  "टाइम</w>": 5987,
  "टाइम्स</w>": 5988,
  "टाइम।</w>": 5989,
  "टायर</w>": 5990,
  "टि": 5991,
  "टिंग</w>": 5992,
  "टिक</w>": 5993,
  "टिकल</w>": 5994,
  "टिकु": 5995,
  "टिपि": 5996,
  "टियर</w>": 5997,
  "टिल</w>": 5998,
  "टिव</w>": 5999,
  "टी": 6000,
  "टी</w>": 6001,
  "टीज</w>": 6002,
  "टीम</w>": 6003,
  "टु": 6004,
  "टुडे</w>": 6005,
  "टू": 6006,
  "टू</w>": 6007,
  "टूल</w>": 6008,
  "टूल्स</w>": 6009,
  "टे": 6010,
  "टे</w>": 6011,
  "टें": 6012,
  "टेंट</w>": 6013,
  "टेक</w>": 6014,
  "टेकिंग</w>": 6015,
  "टेक्": 6016,
  "टेक्नि": 6017,
  "टेक्नो": 6018,
  "टेक्नोलॉजी</w>": 6019,
  "टेक्स्ट</w>": 6020,
  "टेज</w>": 6021,
  "टेड</w>": 6022,
  "टेन</w>": 6023,
  "टेबल</w>": 6024,
  "टेल</w>": 6025,
  "टेलिंग</w>": 6026,
  "टेशन</w>": 6027,
  "टेस्ट</w>": 6028,
  "टै": 6029,
  "टैक्": 6030,
  "टैक्स</w>": 6031,
  "टॉ": 6032,
  "टॉक</w>": 6033,
  "टॉकिंग</w>": 6034,
  "टॉप</w>": 6035,
  "टो": 6036,
  "टो</w>": 6037,
  "ट्": 6038,
  "ट्यू": 6039,
  "ट्र": 6040,
  "ट्रंप</w>": 6041,
  "ट्रस्ट</w>": 6042,
  "ट्रा": 6043,
  "ट्रा</w>": 6044,
  "ट्रां": 6045,
  "ट्रांजै": 6046,
  "ट्रांस": 6047,
  "ट्राइंग</w>": 6048,
  "ट्राई</w>": 6049,
  "ट्रि": 6050,
  "ट्री</w>": 6051,
  "ट्रू</w>": 6052,
  "ट्रे": 6053,
  "ट्रेंड</w>": 6054,
  "ट्रेड</w>": 6055,
  "ट्रेडर्स</w>": 6056,
  "ट्रेडिंग</w>": 6057,
  "ट्रेवल</w>": 6058,
  "ट्रै": 6059,
  "ट्रैवल</w>": 6060,
  "ट्स</w>": 6061,
  "ट।</w>": 6062,
  "ठ": 6063,
  "ठीक</w>": 6064,
  "ड": 6065,
  "ड</w>": 6066,
  "डजंट</w>": 6067,
  "डन</w>": 6068,
  "डबल</w>": 6069,
  "डर</w>": 6070,
  "डर्स</w>": 6071,
  "डली</w>": 6072,
  "डस</w>": 6073,
  "ड़": 6074,
  "ड़</w>": 6075,
  "ड़ा</w>": 6076,
  "ड़ी</w>": 6077,
  "डा": 6078,
  "डाउन</w>": 6079,
  "डाटा</w>": 6080,
  "डाय": 6081,
  "डायमंड</w>": 6082,
  "डायमंड्स</w>": 6083,
  "डायरे": 6084,
  "डाल": 6085,
  "डाल</w>": 6086,
  "डि": 6087,
  "डिंग</w>": 6088,
  "डिज": 6089,
  "डिजि": 6090,
  "डिजिटल</w>": 6091,
  "डिड</w>": 6092,
  "डिफर": 6093,
  "डिफरेंट</w>": 6094,
  "डिफरेंस</w>": 6095,
  "डिफिक": 6096,
  "डिफिकल्ट</w>": 6097,
  "डिफॉ": 6098,
  "डिमा": 6099,
  "डिमांड</w>": 6100,
  "डिया</w>": 6101,
  "डियो</w>": 6102,
  "डिसाइड</w>": 6103,
  "डिसि": 6104,
  "डिसिप्लिन</w>": 6105,
  "डिसीजन</w>": 6106,
  "डिस्": 6107,
  "डिस्क": 6108,
  "डिस्ट्रीब्यू": 6109,
  "डी": 6110,
  "डी</w>": 6111,
  "डीप</w>": 6112,
  "डील</w>": 6113,
  "डू": 6114,
  "डू</w>": 6115,
  "डूइंग</w>": 6116,
  "डे": 6117,
  "डे</w>": 6118,
  "डें": 6119,
  "डेंट</w>": 6120,
  "डेंस</w>": 6121,
  "डेट</w>": 6122,
  "डेटा</w>": 6123,
  "डेड</w>": 6124,
  "डेफि": 6125,
  "डेफिनेटली</w>": 6126,
  "डेवल": 6127,
  "डेवलप": 6128,
  "डेवलपर</w>": 6129,
  "डेवलपर्स</w>": 6130,
  "डॉ": 6131,
  "डॉलर</w>": 6132,
  "डो": 6133,
  "डोंट</w>": 6134,
  "ड्र": 6135,
  "ड्रि": 6136,
  "ड्स</w>": 6137,
  "ड।</w>": 6138,
  "ढ": 6139,
  "ढ़</w>": 6140,
  "ढूंढ": 6141,
  "ण": 6142,
  "त": 6143,
  "त</w>": 6144,
  "तक</w>": 6145,
  "तनी</w>": 6146,
  "तने</w>": 6147,
  "तब</w>": 6148,
  "तभी</w>": 6149,
  "तर": 6150,
  "तर</w>": 6151,
  "तरह</w>": 6152,
  "तरी": 6153,
  "तरीके</w>": 6154,
  "ता": 6155,
  "ता</w>": 6156,
  "ताकि</w>": 6157,
  "ता।</w>": 6158,
  "ती": 6159,
  "ती</w>": 6160,
  "तीन</w>": 6161,
  "तीनों</w>": 6162,
  "तु": 6163,
  "तुम</w>": 6164,
  "तुम्हा": 6165,
  "तुम्हारे</w>": 6166,
  "तुम्हें</w>": 6167,
  "तू</w>": 6168,
  "ते": 6169,
  "ते</w>": 6170,
  "तें</w>": 6171,
  "तेरा</w>": 6172,
  "तेरे</w>": 6173,
  "ते।</w>": 6174,
  "तो</w>": 6175,
  "त्": 6176,
  "थ": 6177,
  "थ</w>": 6178,
  "थर्ड</w>": 6179,
  "था": 6180,
  "था</w>": 6181,
  "था।</w>": 6182,
  "थि": 6183,
  "थिंक</w>": 6184,
  "थिंकिंग</w>": 6185,
  "थिंग</w>": 6186,
  "थिंग्स</w>": 6187,
  "थिंग।</w>": 6188,
  "थी</w>": 6189,
  "थी।</w>": 6190,
  "थे</w>": 6191,
  "थे।</w>": 6192,
  "थै": 6193,
  "थैंक</w>": 6194,
  "थॉट</w>": 6195,
  "थोड़": 6196,
  "थोड़ा</w>": 6197,
  "थोड़ी</w>": 6198,
  "थोड़े</w>": 6199,
  "थोड़": 6200,
  "थ्र": 6201,
  "थ्री</w>": 6202,
  "थ्रू</w>": 6203,
  "द": 6204,
  "द</w>": 6205,
  "दम</w>": 6206,
  "दर</w>": 6207,
  "दा": 6208,
  "दा</w>": 6209,
  "दि": 6210,
  "दिए</w>": 6211,
  "दिख": 6212,
  "दिख</w>": 6213,
  "दिखा": 6214,
  "दिखा</w>": 6215,
  "दिन</w>": 6216,
  "दिमाग</w>": 6217,
  "दिया</w>": 6218,
  "दिया।</w>": 6219,
  "दिल्ली</w>": 6220,
  "दिस</w>": 6221,
  "दिस।</w>": 6222,
  "दी": 6223,
  "दी</w>": 6224,
  "दीज़</w>": 6225,
  "दीज़</w>": 6226,
  "दु": 6227,
  "दुकान</w>": 6228,
  "दुनिया</w>": 6229,
  "दुबई</w>": 6230,
  "दू": 6231,
  "दूंगा</w>": 6232,
  "दूस": 6233,
  "दूसरा</w>": 6234,
  "दूसरी</w>": 6235,
  "दूसरे</w>": 6236,
  "दे": 6237,
  "दे</w>": 6238,
  "देंगे</w>": 6239,
  "देख": 6240,
  "देख</w>": 6241,
  "देखता</w>": 6242,
  "देखते</w>": 6243,
  "देखना</w>": 6244,
  "देखने</w>": 6245,
  "देखा</w>": 6246,
  "देखिए</w>": 6247,
  "देखो</w>": 6248,
  "देखोगे</w>": 6249,
  "देगा</w>": 6250,
  "देता</w>": 6251,
  "देते</w>": 6252,
  "देन</w>": 6253,
  "देना</w>": 6254,
  "देम</w>": 6255,
  "देम।</w>": 6256,
  "देयर</w>": 6257,
  "देयर।</w>": 6258,
  "देर</w>": 6259,
  "देश</w>": 6260,
  "दै": 6261,
  "दैट</w>": 6262,
  "दैट्स</w>": 6263,
  "दैट।</w>": 6264,
  "दो": 6265,
  "दो-": 6266,
  "दो</w>": 6267,
  "दोज़</w>": 6268,
  "दोनों</w>": 6269,
  "दोस्": 6270,
  "दो।</w>": 6271,
  "ध": 6272,
  "धा</w>": 6273,
  "धी": 6274,
  "धीरे</w>": 6275,
  "धे</w>": 6276,
  "न": 6277,
  "न</w>": 6278,
  "नं": 6279,
  "नंबर</w>": 6280,
  "नंबर्स</w>": 6281,
  "नई</w>": 6282,
  "नथिंग</w>": 6283,
  "नमेंट</w>": 6284,
  "नया</w>": 6285,
  "नर</w>": 6286,
  "नर्स</w>": 6287,
  "नल</w>": 6288,
  "नली</w>": 6289,
  "नस</w>": 6290,
  "नही": 6291,
  "नहीं</w>": 6292,
  "नहीं।</w>": 6293,
  "ना": 6294,
  "ना</w>": 6295,
  "ना?</w>": 6296,
  "नाइ": 6297,
  "नाइस</w>": 6298,
  "नाउ": 6299,
  "नाउ</w>": 6300,
  "नाम</w>": 6301,
  "ना।</w>": 6302,
  "नि": 6303,
  "निंग</w>": 6304,
  "निकल</w>": 6305,
  "निका": 6306,
  "निकाल</w>": 6307,
  "नी": 6308,
  "नी</w>": 6309,
  "नीचे</w>": 6310,
  "नीड</w>": 6311,
  "नीड्स</w>": 6312,
  "ने": 6313,
  "ने</w>": 6314,
  "नेक्": 6315,
  "नेक्स्ट</w>": 6316,
  "नेगेटिव</w>": 6317,
  "नेचु": 6318,
  "नेचुरल</w>": 6319,
  "नेट": 6320,
  "नेट</w>": 6321,
  "नेटली</w>": 6322,
  "नेटवर्क</w>": 6323,
  "नेम</w>": 6324,
  "नेवर</w>": 6325,
  "नेशन</w>": 6326,
  "नेशनल</w>": 6327,
  "नेस</w>": 6328,
  "नेसेस</w>": 6329,
  "नै": 6330,
  "नैरे": 6331,
  "नैरेटिव</w>": 6332,
  "नॉ": 6333,
  "नॉट</w>": 6334,
  "नॉर्": 6335,
  "नॉर्थ</w>": 6336,
  "नॉर्मल</w>": 6337,
  "नो": 6338,
  "नो</w>": 6339,
  "नों</w>": 6340,
  "नोट</w>": 6341,
  "नोबडी</w>": 6342,
  "नो।</w>": 6343,
  "न्": 6344,
  "न्यु": 6345,
  "न्यू</w>": 6346,
  "न्यूज़</w>": 6347,
  "न।</w>": 6348,
  "प": 6349,
  "प</w>": 6350,
  "पडकास्ट</w>": 6351,
  "पड़": 6352,
  "पड़ता</w>": 6353,
  "पड़े": 6354,
  "पड़ेगा</w>": 6355,
  "पड़ेगा।</w>": 6356,
  "पढ": 6357,
  "पढ़": 6358,
  "पता</w>": 6359,
  "पन</w>": 6360,
  "पब्लि": 6361,
  "पब्लिक</w>": 6362,
  "पर": 6363,
  "पर</w>": 6364,
  "परफ्यू": 6365,
  "परफ्यूम</w>": 6366,
  "पर्": 6367,
  "पर्स": 6368,
  "पर्सन</w>": 6369,
  "पर्सनल</w>": 6370,
  "पल</w>": 6371,
  "पल्स</w>": 6372,
  "पल।</w>": 6373,
  "पस</w>": 6374,
  "पसंद</w>": 6375,
  "पह": 6376,
  "पहला</w>": 6377,
  "पहली</w>": 6378,
  "पहले</w>": 6379,
  "पहुं": 6380,
  "पहुंच</w>": 6381,
  "पा": 6382,
  "पा</w>": 6383,
  "पांच</w>": 6384,
  "पाउ": 6385,
  "पाए": 6386,
  "पाए</w>": 6387,
  "पाते</w>": 6388,
  "पापा</w>": 6389,
  "पार्": 6390,
  "पार्ट": 6391,
  "पार्ट</w>": 6392,
  "पार्टनर</w>": 6393,
  "पार्टमेंट</w>": 6394,
  "पावर": 6395,
  "पावर</w>": 6396,
  "पावरफुल</w>": 6397,
  "पास</w>": 6398,
  "पि": 6399,
  "पिंग</w>": 6400,
  "पिक</w>": 6401,
  "पिछ": 6402,
  "पिछले</w>": 6403,
  "पी": 6404,
  "पी</w>": 6405,
  "पीछे</w>": 6406,
  "पीट</w>": 6407,
  "पीपल</w>": 6408,
  "पीपल।</w>": 6409,
  "पीरिय": 6410,
  "पीस</w>": 6411,
  "पु": 6412,
  "पुट</w>": 6413,
  "पू": 6414,
  "पूछ": 6415,
  "पूरा</w>": 6416,
  "पूरी</w>": 6417,
  "पूरे</w>": 6418,
  "पे": 6419,
  "पे</w>": 6420,
  "पें": 6421,
  "पेंड</w>": 6422,
  "पेंडिंग</w>": 6423,
  "पेमेंट</w>": 6424,
  "पेरेंट्स</w>": 6425,
  "पै": 6426,
  "पैसा</w>": 6427,
  "पैसे</w>": 6428,
  "पॉ": 6429,
  "पॉइं": 6430,
  "पॉइंट</w>": 6431,
  "पॉइंट्स</w>": 6432,
  "पॉजि": 6433,
  "पॉजिटिव</w>": 6434,
  "पॉडकास्ट</w>": 6435,
  "पॉपु": 6436,
  "पॉलि": 6437,
  "पॉसिबल</w>": 6438,
  "पो": 6439,
  "पोजी": 6440,
  "पोर्ट": 6441,
  "पोर्ट</w>": 6442,
  "पोर्टफोलियो</w>": 6443,
  "पोस्ट</w>": 6444,
  "प्": 6445,
  "प्ट</w>": 6446,
  "प्र": 6447,
  "प्रमो": 6448,
  "प्राइ": 6449,
  "प्राइस</w>": 6450,
  "प्राइसेस</w>": 6451,
  "प्रि": 6452,
  "प्रिंसि": 6453,
  "प्री": 6454,
  "प्रीमिय": 6455,
  "प्रीमियम</w>": 6456,
  "प्रू": 6457,
  "प्रे": 6458,
  "प्रेज": 6459,
  "प्रेजें": 6460,
  "प्रेडि": 6461,
  "प्रेन्": 6462,
  "प्रै": 6463,
  "प्रॉ": 6464,
  "प्रॉपर्": 6465,
  "प्रॉपर्टी</w>": 6466,
  "प्रॉफिट</w>": 6467,
  "प्रॉब्ल": 6468,
  "प्रॉब्लम</w>": 6469,
  "प्रॉब्लम्स</w>": 6470,
  "प्रो": 6471,
  "प्रोजे": 6472,
  "प्रोजेक्ट</w>": 6473,
  "प्रोड": 6474,
  "प्रोडक्ट</w>": 6475,
  "प्रोडक्ट्स</w>": 6476,
  "प्रोफाइल</w>": 6477,
  "प्रोबे": 6478,
  "प्रोसेस</w>": 6479,
  "प्र्": 6480,
  "प्र्प्ट</w>": 6481,
  "प्ल": 6482,
  "प्लस</w>": 6483,
  "प्ला": 6484,
  "प्लाई</w>": 6485,
  "प्लान</w>": 6486,
  "प्लि": 6487,
  "प्ली": 6488,
  "प्लीज</w>": 6489,
  "प्ले": 6490,
  "प्ले</w>": 6491,
  "प्लेट": 6492,
  "प्लेटफार्म</w>": 6493,
  "प्लेन</w>": 6494,
  "प्लेस</w>": 6495,
  "प्लॉ": 6496,
  "प्स</w>": 6497,
  "फ": 6498,
  "फ</w>": 6499,
  "फं": 6500,
  "फंड</w>": 6501,
  "फंडामें": 6502,
  "फर": 6503,
  "फर</w>": 6504,
  "फर्": 6505,
  "फर्क</w>": 6506,
  "फर्स्ट</w>": 6507,
  "फा": 6508,
  "फाइ": 6509,
  "फाइंड</w>": 6510,
  "फाइन": 6511,
  "फाइनेंशियल</w>": 6512,
  "फाइनेंस</w>": 6513,
  "फाइनेंसि": 6514,
  "फाइनेंसियल</w>": 6515,
  "फाइल</w>": 6516,
  "फाइव</w>": 6517,
  "फाई</w>": 6518,
  "फाउ": 6519,
  "फाउंड": 6520,
  "फाउंडर</w>": 6521,
  "फाय": 6522,
  "फायदा</w>": 6523,
  "फार</w>": 6524,
  "फार्": 6525,
  "फार्म</w>": 6526,
  "फार्मूला</w>": 6527,
  "फास्ट</w>": 6528,
  "फि": 6529,
  "फिक": 6530,
  "फिक्स</w>": 6531,
  "फिगर</w>": 6532,
  "फिगरिंग</w>": 6533,
  "फिट</w>": 6534,
  "फिट्स</w>": 6535,
  "फियर</w>": 6536,
  "फिर</w>": 6537,
  "फिशि": 6538,
  "फी": 6539,
  "फी</w>": 6540,
  "फील</w>": 6541,
  "फीलिंग</w>": 6542,
  "फु": 6543,
  "फुल</w>": 6544,
  "फे": 6545,
  "फेयर</w>": 6546,
  "फै": 6547,
  "फैक्": 6548,
  "फैक्ट</w>": 6549,
  "फैमि": 6550,
  "फैमिली</w>": 6551,
  "फॉ": 6552,
  "फॉर": 6553,
  "फॉर</w>": 6554,
  "फॉर्": 6555,
  "फॉर्म</w>": 6556,
  "फॉर्मेशन</w>": 6557,
  "फॉलो</w>": 6558,
  "फो": 6559,
  "फोक": 6560,
  "फोकस</w>": 6561,
  "फोन</w>": 6562,
  "फोर</w>": 6563,
  "फ्": 6564,
  "फ्ट</w>": 6565,
  "फ्टी</w>": 6566,
  "फ्यू": 6567,
  "फ्यू</w>": 6568,
  "फ्यूचर</w>": 6569,
  "फ्र": 6570,
  "फ्रा": 6571,
  "फ्री": 6572,
  "फ्री</w>": 6573,
  "फ्रीक्व": 6574,
  "फ्रीक्वेंसी</w>": 6575,
  "फ्रे": 6576,
  "फ्रें": 6577,
  "फ्रेंड्स</w>": 6578,
  "फ्रेग": 6579,
  "फ्रेगरें": 6580,
  "फ्रेगरेंस</w>": 6581,
  "फ्रेगरेंसेस</w>": 6582,
  "फ्रॉम</w>": 6583,
  "फ्लो</w>": 6584,
  "फ।</w>": 6585,
  "ब": 6586,
  "ब</w>": 6587,
  "बं": 6588,
  "बंद</w>": 6589,
  "बंदा</w>": 6590,
  "बंदे</w>": 6591,
  "बई</w>": 6592,
  "बच्": 6593,
  "बच्चे</w>": 6594,
  "बट</w>": 6595,
  "बड़": 6596,
  "बड़ा</w>": 6597,
  "बड़ी</w>": 6598,
  "बड़े</w>": 6599,
  "बडी</w>": 6600,
  "बढ़": 6601,
  "बढ़</w>": 6602,
  "बढ़िया</w>": 6603,
  "बता": 6604,
  "बता</w>": 6605,
  "बताओ</w>": 6606,
  "बताता</w>": 6607,
  "बताया</w>": 6608,
  "बन": 6609,
  "बन</w>": 6610,
  "बनते</w>": 6611,
  "बनना</w>": 6612,
  "बना": 6613,
  "बना</w>": 6614,
  "बनाए": 6615,
  "बनाते</w>": 6616,
  "बनाना</w>": 6617,
  "बनाने</w>": 6618,
  "बनाया</w>": 6619,
  "बने": 6620,
  "बने</w>": 6621,
  "बनेगा</w>": 6622,
  "बब्ली</w>": 6623,
  "बर</w>": 6624,
  "बर्": 6625,
  "बर्स</w>": 6626,
  "बल</w>": 6627,
  "बली</w>": 6628,
  "बस</w>": 6629,
  "बह</w>": 6630,
  "बहु": 6631,
  "बहुत</w>": 6632,
  "बा": 6633,
  "बा</w>": 6634,
  "बाइंग</w>": 6635,
  "बाकी</w>": 6636,
  "बात</w>": 6637,
  "बाद</w>": 6638,
  "बाय</w>": 6639,
  "बार</w>": 6640,
  "बारे</w>": 6641,
  "बाहर</w>": 6642,
  "बि": 6643,
  "बिकम</w>": 6644,
  "बिकम्स</w>": 6645,
  "बिकॉज</w>": 6646,
  "बिकॉज़</w>": 6647,
  "बिकॉज़</w>": 6648,
  "बिग</w>": 6649,
  "बिगर</w>": 6650,
  "बिगेस्ट</w>": 6651,
  "बिज": 6652,
  "बिजनेस</w>": 6653,
  "बिज़": 6654,
  "बिज़नेस</w>": 6655,
  "बिट": 6656,
  "बिट</w>": 6657,
  "बिटकॉइन</w>": 6658,
  "बिटवीन</w>": 6659,
  "बिनेस</w>": 6660,
  "बिफोर</w>": 6661,
  "बिलि": 6662,
  "बिलिटी</w>": 6663,
  "बिलियन</w>": 6664,
  "बिली": 6665,
  "बिलीफ</w>": 6666,
  "बिलीव</w>": 6667,
  "बिल्": 6668,
  "बिल्कु": 6669,
  "बिल्कुल</w>": 6670,
  "बिल्ड</w>": 6671,
  "बिल्डिंग</w>": 6672,
  "बिहे": 6673,
  "बिज़": 6674,
  "बी": 6675,
  "बी</w>": 6676,
  "बीआई</w>": 6677,
  "बीइंग</w>": 6678,
  "बीच</w>": 6679,
  "बीन</w>": 6680,
  "बु": 6681,
  "बुक</w>": 6682,
  "बे": 6683,
  "बे</w>": 6684,
  "बेच": 6685,
  "बेच</w>": 6686,
  "बेचना</w>": 6687,
  "बेटर</w>": 6688,
  "बेनि": 6689,
  "बेनिफिट</w>": 6690,
  "बेस</w>": 6691,
  "बेसि": 6692,
  "बेसिक</w>": 6693,
  "बेसिकली</w>": 6694,
  "बेसिस</w>": 6695,
  "बेस्ट</w>": 6696,
  "बेस्ड</w>": 6697,
  "बेहतर</w>": 6698,
  "बै": 6699,
  "बैं": 6700,
  "बैंक</w>": 6701,
  "बैंक्स</w>": 6702,
  "बैक": 6703,
  "बैक</w>": 6704,
  "बैठ": 6705,
  "बैठ</w>": 6706,
  "बैड</w>": 6707,
  "बैलेंस</w>": 6708,
  "बॉ": 6709,
  "बॉडी</w>": 6710,
  "बॉन्": 6711,
  "बॉन्ड</w>": 6712,
  "बॉम्बे</w>": 6713,
  "बॉस</w>": 6714,
  "बो": 6715,
  "बोथ</w>": 6716,
  "बोर्ड</w>": 6717,
  "बोल": 6718,
  "बोल</w>": 6719,
  "बोलता</w>": 6720,
  "बोलते</w>": 6721,
  "बोला</w>": 6722,
  "बोलेगा</w>": 6723,
  "ब्": 6724,
  "ब्यू": 6725,
  "ब्र": 6726,
  "ब्रा": 6727,
  "ब्रांड</w>": 6728,
  "ब्रांड्स</w>": 6729,
  "ब्रि": 6730,
  "ब्रे": 6731,
  "ब्रो": 6732,
  "ब्ल": 6733,
  "ब्लि": 6734,
  "ब्ली</w>": 6735,
  "ब्लॉ": 6736,
  "ब्स</w>": 6737,
  "ब्सो": 6738,
  "ब्सोलु": 6739,
  "ब्सोलुटली</w>": 6740,
  "बड़": 6741,
  "बड़ा</w>": 6742,
  "भ": 6743,
  "भ</w>": 6744,
  "भर</w>": 6745,
  "भा": 6746,
  "भाई</w>": 6747,
  "भी</w>": 6748,
  "भैया</w>": 6749,
  "म": 6750,
  "म</w>": 6751,
  "मं": 6752,
  "मंथ": 6753,
  "मंथ</w>": 6754,
  "मंथ्स</w>": 6755,
  "मच</w>": 6756,
  "मजा</w>": 6757,
  "मटे": 6758,
  "मत": 6759,
  "मत</w>": 6760,
  "मतलब</w>": 6761,
  "मन</w>": 6762,
  "मनी": 6763,
  "मनी</w>": 6764,
  "मनी।</w>": 6765,
  "मने</w>": 6766,
  "मम</w>": 6767,
  "मम्": 6768,
  "मर</w>": 6769,
  "मर्स</w>": 6770,
  "मल</w>": 6771,
  "मली</w>": 6772,
  "मल्": 6773,
  "मल्टी": 6774,
  "मल्टीपल</w>": 6775,
  "मह": 6776,
  "महीना</w>": 6777,
  "महीने</w>": 6778,
  "मा": 6779,
  "मा</w>": 6780,
  "माइ": 6781,
  "माइंड</w>": 6782,
  "माइट</w>": 6783,
  "माउंट</w>": 6784,
  "मान</w>": 6785,
  "माय</w>": 6786,
  "मार्": 6787,
  "मार्के": 6788,
  "मार्केट</w>": 6789,
  "मार्केटिंग</w>": 6790,
  "मार्केट्स</w>": 6791,
  "मार्जिन</w>": 6792,
  "माल</w>": 6793,
  "मि": 6794,
  "मिंग</w>": 6795,
  "मिड</w>": 6796,
  "मिडिल</w>": 6797,
  "मिन": 6798,
  "मिय": 6799,
  "मिल": 6800,
  "मिल</w>": 6801,
  "मिलता</w>": 6802,
  "मिला</w>": 6803,
  "मिलि": 6804,
  "मिलियन</w>": 6805,
  "मिले": 6806,
  "मिले</w>": 6807,
  "मिलेगा</w>": 6808,
  "मिस</w>": 6809,
  "मिस्टे": 6810,
  "मी": 6811,
  "मी</w>": 6812,
  "मींस</w>": 6813,
  "मीट</w>": 6814,
  "मीटिंग</w>": 6815,
  "मीडिया</w>": 6816,
  "मीन</w>": 6817,
  "मी।</w>": 6818,
  "मु": 6819,
  "मुं": 6820,
  "मुझ": 6821,
  "मुझे</w>": 6822,
  "मू": 6823,
  "मूला</w>": 6824,
  "मूव</w>": 6825,
  "मे": 6826,
  "मे</w>": 6827,
  "में": 6828,
  "में</w>": 6829,
  "मेंट</w>": 6830,
  "मेंट्स</w>": 6831,
  "मेंबर</w>": 6832,
  "में।</w>": 6833,
  "मेक</w>": 6834,
  "मेकिंग</w>": 6835,
  "मेक्स</w>": 6836,
  "मेजर</w>": 6837,
  "मेट</w>": 6838,
  "मेड</w>": 6839,
  "मेन</w>": 6840,
  "मेनी</w>": 6841,
  "मेरा</w>": 6842,
  "मेरी</w>": 6843,
  "मेरे</w>": 6844,
  "मेल</w>": 6845,
  "मेशन</w>": 6846,
  "मेह": 6847,
  "मेहनत</w>": 6848,
  "मै": 6849,
  "मैं</w>": 6850,
  "मैंने</w>": 6851,
  "मैक्सिमम</w>": 6852,
  "मैच</w>": 6853,
  "मैजिक</w>": 6854,
  "मैटर</w>": 6855,
  "मैन</w>": 6856,
  "मैने": 6857,
  "मैनेज": 6858,
  "मैनेज</w>": 6859,
  "मैनेजमेंट</w>": 6860,
  "मैनेजर</w>": 6861,
  "मैन्यु": 6862,
  "मॉ": 6863,
  "मॉड": 6864,
  "मॉडल</w>": 6865,
  "मॉल</w>": 6866,
  "मो": 6867,
  "मोबाइल</w>": 6868,
  "मोर</w>": 6869,
  "मोस्ट</w>": 6870,
  "म्": 6871,
  "म्बे</w>": 6872,
  "म्यू": 6873,
  "म्यूचुअल</w>": 6874,
  "म्स</w>": 6875,
  "म।</w>": 6876,
  "य": 6877,
  "य</w>": 6878,
  "यंग</w>": 6879,
  "यंस</w>": 6880,
  "यन</w>": 6881,
  "यर": 6882,
  "यर</w>": 6883,
  "यरिंग</w>": 6884,
  "यर्ड</w>": 6885,
  "यर्स</w>": 6886,
  "यर।</w>": 6887,
  "यल</w>": 6888,
  "यली</w>": 6889,
  "यस</w>": 6890,
  "यस।</w>": 6891,
  "यह</w>": 6892,
  "यहां</w>": 6893,
  "यही</w>": 6894,
  "या": 6895,
  "या</w>": 6896,
  "यां</w>": 6897,
  "याज</w>": 6898,
  "यानी</w>": 6899,
  "यार</w>": 6900,
  "या।</w>": 6901,
  "यु": 6902,
  "यू": 6903,
  "यू</w>": 6904,
  "यूएस</w>": 6905,
  "यूज</w>": 6906,
  "यूज़</w>": 6907,
  "यूजिंग</w>": 6908,
  "यूजुअ": 6909,
  "यूजुअली</w>": 6910,
  "यूज्ड</w>": 6911,
  "यूनि": 6912,
  "यूरो": 6913,
  "यूरोप</w>": 6914,
  "यूज़</w>": 6915,
  "यू।</w>": 6916,
  "ये": 6917,
  "ये</w>": 6918,
  "यो": 6919,
  "यो</w>": 6920,
  "योर</w>": 6921,
  "र": 6922,
  "र</w>": 6923,
  "रख": 6924,
  "रखा</w>": 6925,
  "रत</w>": 6926,
  "रन</w>": 6927,
  "रर्चुनि": 6928,
  "रर्चुनिटी</w>": 6929,
  "रल</w>": 6930,
  "रली</w>": 6931,
  "रशिप</w>": 6932,
  "रह": 6933,
  "रह</w>": 6934,
  "रहता</w>": 6935,
  "रहते</w>": 6936,
  "रहना</w>": 6937,
  "रहा</w>": 6938,
  "रही</w>": 6939,
  "रहे": 6940,
  "रहे</w>": 6941,
  "रहेगा</w>": 6942,
  "रा": 6943,
  "रा</w>": 6944,
  "राइ": 6945,
  "राइट": 6946,
  "राइट</w>": 6947,
  "राइट?</w>": 6948,
  "राइब</w>": 6949,
  "राउंड</w>": 6950,
  "राकेश</w>": 6951,
  "राज</w>": 6952,
  "राट</w>": 6953,
  "रात</w>": 6954,
  "रि": 6955,
  "रिंग</w>": 6956,
  "रिक्वा": 6957,
  "रिक्वे": 6958,
  "रिच</w>": 6959,
  "रिजल्ट</w>": 6960,
  "रिटर्न</w>": 6961,
  "रिटर्न्स</w>": 6962,
  "रिटी</w>": 6963,
  "रिटेल</w>": 6964,
  "रिपोर्ट</w>": 6965,
  "रिमेंबर</w>": 6966,
  "रिय": 6967,
  "रियल</w>": 6968,
  "रियलस्टेट</w>": 6969,
  "रियलाइ": 6970,
  "रियलाइज</w>": 6971,
  "रियली</w>": 6972,
  "रियस</w>": 6973,
  "रिले": 6974,
  "रिलेशन": 6975,
  "रिलेशनशिप</w>": 6976,
  "रिसर्च</w>": 6977,
  "रिस्": 6978,
  "रिस्क</w>": 6979,
  "री": 6980,
  "री</w>": 6981,
  "रीज</w>": 6982,
  "रीजन</w>": 6983,
  "रीज़न</w>": 6984,
  "रीड</w>": 6985,
  "रु": 6986,
  "रुप": 6987,
  "रू": 6988,
  "रूम</w>": 6989,
  "रे": 6990,
  "रे</w>": 6991,
  "रें": 6992,
  "रेंट</w>": 6993,
  "रेंट्स</w>": 6994,
  "रेगु": 6995,
  "रेज</w>": 6996,
  "रेट</w>": 6997,
  "रेडी</w>": 6998,
  "रेवे": 6999,
  "रेवेन्यू</w>": 7000,
  "रेशन</w>": 7001,
  "रेस्ट</w>": 7002,
  "रेस्टो": 7003,
  "रॉ": 7004,
  "रो": 7005,
  "रो</w>": 7006,
  "रों</w>": 7007,
  "रोज</w>": 7008,
  "र्": 7009,
  "र्चु": 7010,
  "र्चुनि": 7011,
  "र्ट</w>": 7012,
  "र्टेंट</w>": 7013,
  "र्ट्स</w>": 7014,
  "र्ड</w>": 7015,
  "र्न</w>": 7016,
  "र्स</w>": 7017,
  "र।</w>": 7018,
  "ल": 7019,
  "ल</w>": 7020,
  "लं": 7021,
  "लग": 7022,
  "लग</w>": 7023,
  "लगता</w>": 7024,
  "लगा": 7025,
  "लगा</w>": 7026,
  "लगे": 7027,
  "लगे</w>": 7028,
  "लगेगा</w>": 7029,
  "लग्जरी</w>": 7030,
  "लड़": 7031,
  "लब</w>": 7032,
  "लर</w>": 7033,
  "लर्न</w>": 7034,
  "लर्स</w>": 7035,
  "लव</w>": 7036,
  "ला": 7037,
  "ला</w>": 7038,
  "लाइ": 7039,
  "लाइक</w>": 7040,
  "लाइज</w>": 7041,
  "लाइट</w>": 7042,
  "लाइन</w>": 7043,
  "लाइफ</w>": 7044,
  "लाइफ।</w>": 7045,
  "लाख</w>": 7046,
  "लार्": 7047,
  "लार्ज</w>": 7048,
  "लास</w>": 7049,
  "लास्ट</w>": 7050,
  "लि": 7051,
  "लिंक</w>": 7052,
  "लिंग</w>": 7053,
  "लिए</w>": 7054,
  "लिए।</w>": 7055,
  "लिख": 7056,
  "लिख</w>": 7057,
  "लिटिल</w>": 7058,
  "लिटी</w>": 7059,
  "लिमि": 7060,
  "लिया</w>": 7061,
  "लिव</w>": 7062,
  "लिविंग</w>": 7063,
  "लिस्ट</w>": 7064,
  "ली": 7065,
  "ली</w>": 7066,
  "लीगल</w>": 7067,
  "लीज</w>": 7068,
  "लीड</w>": 7069,
  "लीडर्स</w>": 7070,
  "लीस्ट</w>": 7071,
  "ली।</w>": 7072,
  "लु": 7073,
  "लुक</w>": 7074,
  "लुकिंग</w>": 7075,
  "लू": 7076,
  "लू</w>": 7077,
  "ले": 7078,
  "ले</w>": 7079,
  "लें": 7080,
  "लेंगे</w>": 7081,
  "लेंस</w>": 7082,
  "लेकिन</w>": 7083,
  "लेके</w>": 7084,
  "लेगा</w>": 7085,
  "लेज</w>": 7086,
  "लेट</w>": 7087,
  "लेटर</w>": 7088,
  "लेट्स</w>": 7089,
  "लेते</w>": 7090,
  "लेना</w>": 7091,
  "लेने</w>": 7092,
  "लेव": 7093,
  "लेवल</w>": 7094,
  "लेशन</w>": 7095,
  "लेस</w>": 7096,
  "लै": 7097,
  "लैंग्वेज</w>": 7098,
  "लैंड</w>": 7099,
  "लैक</w>": 7100,
  "लैब</w>": 7101,
  "लॉ": 7102,
  "लॉ</w>": 7103,
  "लॉजी</w>": 7104,
  "लॉट</w>": 7105,
  "लॉन्": 7106,
  "लॉन्ग</w>": 7107,
  "लॉस</w>": 7108,
  "लो": 7109,
  "लो</w>": 7110,
  "लों</w>": 7111,
  "लोग</w>": 7112,
  "लोगे</w>": 7113,
  "लोगों</w>": 7114,
  "लोन</w>": 7115,
  "लोर</w>": 7116,
  "लो।</w>": 7117,
  "ल्": 7118,
  "ल्ट</w>": 7119,
  "ल्ड</w>": 7120,
  "ल्ड।</w>": 7121,
  "ल्यू": 7122,
  "ल्ली</w>": 7123,
  "ल्व</w>": 7124,
  "ल्स</w>": 7125,
  "ल।</w>": 7126,
  "व": 7127,
  "व</w>": 7128,
  "वंस</w>": 7129,
  "वगैरह</w>": 7130,
  "वजह</w>": 7131,
  "वन</w>": 7132,
  "वर": 7133,
  "वर</w>": 7134,
  "वर्": 7135,
  "वर्क</w>": 7136,
  "वर्किंग</w>": 7137,
  "वर्क्स</w>": 7138,
  "वर्ड</w>": 7139,
  "वर्ड्स</w>": 7140,
  "वर्थ</w>": 7141,
  "वर्ल्ड</w>": 7142,
  "वर्ल्ड।</w>": 7143,
  "वर्स</w>": 7144,
  "वर्सेस</w>": 7145,
  "वल</w>": 7146,
  "वली</w>": 7147,
  "वह</w>": 7148,
  "वहां</w>": 7149,
  "वही</w>": 7150,
  "वा": 7151,
  "वा</w>": 7152,
  "वां": 7153,
  "वांट</w>": 7154,
  "वांटेड</w>": 7155,
  "वांट्स</w>": 7156,
  "वाइ": 7157,
  "वाइट</w>": 7158,
  "वाइड</w>": 7159,
  "वाचिंग</w>": 7160,
  "वाज</w>": 7161,
  "वाज़</w>": 7162,
  "वापस</w>": 7163,
  "वाल</w>": 7164,
  "वाला</w>": 7165,
  "वाली</w>": 7166,
  "वाले</w>": 7167,
  "वास</w>": 7168,
  "वाज़</w>": 7169,
  "वि": 7170,
  "वि</w>": 7171,
  "विंग</w>": 7172,
  "विथ</w>": 7173,
  "विद</w>": 7174,
  "विदाउट</w>": 7175,
  "विय": 7176,
  "वियसली</w>": 7177,
  "विल</w>": 7178,
  "वी": 7179,
  "वी</w>": 7180,
  "वीजा</w>": 7181,
  "वीडियो</w>": 7182,
  "वु": 7183,
  "वुड</w>": 7184,
  "वुमेन</w>": 7185,
  "वे": 7186,
  "वे</w>": 7187,
  "वें": 7188,
  "वेंट</w>": 7189,
  "वेज</w>": 7190,
  "वेट</w>": 7191,
  "वेदर</w>": 7192,
  "वेब": 7193,
  "वेबसाइट</w>": 7194,
  "वेयर</w>": 7195,
  "वेर</w>": 7196,
  "वेरी": 7197,
  "वेरी</w>": 7198,
  "वेल</w>": 7199,
  "वेल्थ</w>": 7200,
  "वेल।</w>": 7201,
  "वेस्ट</w>": 7202,
  "वै": 7203,
  "वै</w>": 7204,
  "वैभ": 7205,
  "वैभव</w>": 7206,
  "वैरी</w>": 7207,
  "वैल्": 7208,
  "वैल्यू": 7209,
  "वैल्यू</w>": 7210,
  "वैसा</w>": 7211,
  "वैसे</w>": 7212,
  "वॉ": 7213,
  "वो": 7214,
  "वो</w>": 7215,
  "व्": 7216,
  "व्ट</w>": 7217,
  "व्यू</w>": 7218,
  "व्स</w>": 7219,
  "व्हा": 7220,
  "व्हाई</w>": 7221,
  "व्हाट": 7222,
  "व्हाट</w>": 7223,
  "व्हाटएवर</w>": 7224,
  "व्हाट्स</w>": 7225,
  "व्हिच</w>": 7226,
  "व्हे": 7227,
  "व्हेन</w>": 7228,
  "व्हेयर</w>": 7229,
  "व।</w>": 7230,
  "श": 7231,
  "श</w>": 7232,
  "शंस</w>": 7233,
  "शन": 7234,
  "शन</w>": 7235,
  "शनल</w>": 7236,
  "शन।</w>": 7237,
  "शर</w>": 7238,
  "शा": 7239,
  "शायद</w>": 7240,
  "शि": 7241,
  "शियल</w>": 7242,
  "शी</w>": 7243,
  "शुड</w>": 7244,
  "शुर": 7245,
  "शुरू</w>": 7246,
  "शे": 7247,
  "शेयर</w>": 7248,
  "शॉ": 7249,
  "शॉपिंग</w>": 7250,
  "शॉर्ट</w>": 7251,
  "शो": 7252,
  "शो</w>": 7253,
  "शोर</w>": 7254,
  "श्": 7255,
  "श्योर</w>": 7256,
  "ष": 7257,
  "स": 7258,
  "स</w>": 7259,
  "सं": 7260,
  "सक": 7261,
  "सकता</w>": 7262,
  "सकती</w>": 7263,
  "सकते</w>": 7264,
  "सक्सेस</w>": 7265,
  "सक्सेसफुल</w>": 7266,
  "सच</w>": 7267,
  "सप्लाई</w>": 7268,
  "सब": 7269,
  "सब</w>": 7270,
  "सबके</w>": 7271,
  "सबको</w>": 7272,
  "सबसे</w>": 7273,
  "सब्": 7274,
  "सब्सक्राइब</w>": 7275,
  "सभी</w>": 7276,
  "सम": 7277,
  "सम</w>": 7278,
  "समझ": 7279,
  "समझ</w>": 7280,
  "समझना</w>": 7281,
  "समथिंग</w>": 7282,
  "समबडी</w>": 7283,
  "समय</w>": 7284,
  "समवन</w>": 7285,
  "सर": 7286,
  "सर</w>": 7287,
  "सर्": 7288,
  "सर्च</w>": 7289,
  "सर्टेन</w>": 7290,
  "सर्वाइ": 7291,
  "सर्वि": 7292,
  "सर्विस</w>": 7293,
  "सर्विसेस</w>": 7294,
  "सल</w>": 7295,
  "सली</w>": 7296,
  "सस्": 7297,
  "सही</w>": 7298,
  "सा": 7299,
  "सा</w>": 7300,
  "साइ": 7301,
  "साइंस</w>": 7302,
  "साइज</w>": 7303,
  "साइट</w>": 7304,
  "साइट्स</w>": 7305,
  "साइड</w>": 7306,
  "साउथ</w>": 7307,
  "सात</w>": 7308,
  "साथ</w>": 7309,
  "सान</w>": 7310,
  "सामने</w>": 7311,
  "सारा</w>": 7312,
  "सारी</w>": 7313,
  "सारे</w>": 7314,
  "साल</w>": 7315,
  "सालों</w>": 7316,
  "सि": 7317,
  "सिंग": 7318,
  "सिंग</w>": 7319,
  "सिंगल</w>": 7320,
  "सिंपल</w>": 7321,
  "सिक्यो": 7322,
  "सिक्स</w>": 7323,
  "सिचु": 7324,
  "सिचुएशन</w>": 7325,
  "सिटी</w>": 7326,
  "सिटीज</w>": 7327,
  "सिफि": 7328,
  "सिबल</w>": 7329,
  "सिर्फ</w>": 7330,
  "सिव</w>": 7331,
  "सिस</w>": 7332,
  "सिस्ट": 7333,
  "सिस्टम</w>": 7334,
  "सी": 7335,
  "सी</w>": 7336,
  "सीख": 7337,
  "सीख</w>": 7338,
  "सीजन</w>": 7339,
  "सीन</w>": 7340,
  "सु": 7341,
  "सुपर</w>": 7342,
  "सुबह</w>": 7343,
  "से": 7344,
  "से</w>": 7345,
  "सें": 7346,
  "सेंट</w>": 7347,
  "सेंस</w>": 7348,
  "सेइंग</w>": 7349,
  "सेक": 7350,
  "सेकंड</w>": 7351,
  "सेक्टर</w>": 7352,
  "सेग": 7353,
  "सेगमेंट</w>": 7354,
  "सेज</w>": 7355,
  "सेट</w>": 7356,
  "सेट्स</w>": 7357,
  "सेड</w>": 7358,
  "सेप्": 7359,
  "सेप्ट</w>": 7360,
  "सेफ</w>": 7361,
  "सेफ्टी</w>": 7362,
  "सेम</w>": 7363,
  "सेल</w>": 7364,
  "सेलिंग</w>": 7365,
  "सेल्": 7366,
  "सेल्फ</w>": 7367,
  "सेल्स</w>": 7368,
  "सेव</w>": 7369,
  "सेवन</w>": 7370,
  "सेविंग्स</w>": 7371,
  "सेशन</w>": 7372,
  "सेस": 7373,
  "सेस</w>": 7374,
  "सेस।</w>": 7375,
  "से।</w>": 7376,
  "सै": 7377,
  "सैलरी</w>": 7378,
  "सॉ": 7379,
  "सॉफ्टवेयर</w>": 7380,
  "सॉरी</w>": 7381,
  "सॉर्ट</w>": 7382,
  "सॉल्व</w>": 7383,
  "सो": 7384,
  "सो,</w>": 7385,
  "सो</w>": 7386,
  "सोच": 7387,
  "सोच</w>": 7388,
  "सोर्स</w>": 7389,
  "सोल्ड</w>": 7390,
  "सोश": 7391,
  "सोशल</w>": 7392,
  "सोसाइ": 7393,
  "स्": 7394,
  "स्क": 7395,
  "स्क</w>": 7396,
  "स्किल</w>": 7397,
  "स्कूल</w>": 7398,
  "स्के": 7399,
  "स्केल</w>": 7400,
  "स्कै": 7401,
  "स्कैम</w>": 7402,
  "स्ट": 7403,
  "स्ट</w>": 7404,
  "स्टफ</w>": 7405,
  "स्टर</w>": 7406,
  "स्टली</w>": 7407,
  "स्टा": 7408,
  "स्टाइल</w>": 7409,
  "स्टार्": 7410,
  "स्टार्ट": 7411,
  "स्टार्ट</w>": 7412,
  "स्टार्टअप</w>": 7413,
  "स्टार्टिंग</w>": 7414,
  "स्टार्टेड</w>": 7415,
  "स्टि": 7416,
  "स्टिंग</w>": 7417,
  "स्टिल</w>": 7418,
  "स्टे": 7419,
  "स्टेज</w>": 7420,
  "स्टेट": 7421,
  "स्टेट</w>": 7422,
  "स्टेड</w>": 7423,
  "स्टेप</w>": 7424,
  "स्टेबिलिटी</w>": 7425,
  "स्टै": 7426,
  "स्टॉ": 7427,
  "स्टॉक</w>": 7428,
  "स्टॉक्स</w>": 7429,
  "स्टो": 7430,
  "स्टोर</w>": 7431,
  "स्टोरी</w>": 7432,
  "स्ट्र": 7433,
  "स्ट्रक्चर</w>": 7434,
  "स्ट्रांग</w>": 7435,
  "स्ट्री": 7436,
  "स्ट्री</w>": 7437,
  "स्ट्रे": 7438,
  "स्ट।</w>": 7439,
  "स्ड</w>": 7440,
  "स्पि": 7441,
  "स्पी": 7442,
  "स्पे": 7443,
  "स्पेंड</w>": 7444,
  "स्पेक्ट</w>": 7445,
  "स्पेश": 7446,
  "स्पेशली</w>": 7447,
  "स्पेस</w>": 7448,
  "स्पेसिफि": 7449,
  "स्पेसिफिक</w>": 7450,
  "स्पो": 7451,
  "स्पोर्ट्स</w>": 7452,
  "स्मार्": 7453,
  "स्मार्ट</w>": 7454,
  "स्मेल</w>": 7455,
  "स्मॉल</w>": 7456,
  "स।</w>": 7457,
  "ह": 7458,
  "ह</w>": 7459,
  "हम": 7460,
  "हम</w>": 7461,
  "हमको</w>": 7462,
  "हमने</w>": 7463,
  "हमारा</w>": 7464,
  "हमारी</w>": 7465,
  "हमारे</w>": 7466,
  "हमें</w>": 7467,
  "हमेशा</w>": 7468,
  "हम्": 7469,
  "हम्म</w>": 7470,
  "हर</w>": 7471,
  "हा": 7472,
  "हा</w>": 7473,
  "हां</w>": 7474,
  "हां।</w>": 7475,
  "हाइ": 7476,
  "हाई": 7477,
  "हाई</w>": 7478,
  "हाईएस्ट</w>": 7479,
  "हाउ</w>": 7480,
  "हाउस</w>": 7481,
  "हाथ</w>": 7482,
  "हाफ</w>": 7483,
  "हायर</w>": 7484,
  "हार्ड</w>": 7485,
  "हि": 7486,
  "हिम</w>": 7487,
  "हियर</w>": 7488,
  "हिसाब</w>": 7489,
  "ही": 7490,
  "ही</w>": 7491,
  "हीं</w>": 7492,
  "हु": 7493,
  "हु</w>": 7494,
  "हुआ": 7495,
  "हुआ</w>": 7496,
  "हुई</w>": 7497,
  "हुए</w>": 7498,
  "हू": 7499,
  "हूं</w>": 7500,
  "हूं।</w>": 7501,
  "हे": 7502,
  "हेड</w>": 7503,
  "हेल्": 7504,
  "हेल्थ</w>": 7505,
  "हेल्प</w>": 7506,
  "है": 7507,
  "है,</w>": 7508,
  "है</w>": 7509,
  "है?</w>": 7510,
  "हैं": 7511,
  "हैं,</w>": 7512,
  "हैं</w>": 7513,
  "हैं?</w>": 7514,
  "हैंड</w>": 7515,
  "हैं।</w>": 7516,
  "हैज</w>": 7517,
  "हैज़</w>": 7518,
  "हैड</w>": 7519,
  "हैप": 7520,
  "हैपन</w>": 7521,
  "हैपनिंग</w>": 7522,
  "हैपेंड</w>": 7523,
  "हैप्": 7524,
  "हैप्पी</w>": 7525,
  "हैव</w>": 7526,
  "हैविंग</w>": 7527,
  "हैज़</w>": 7528,
  "है।</w>": 7529,
  "हॉ": 7530,
  "हो": 7531,
  "हो,</w>": 7532,
  "हो</w>": 7533,
  "होंगे</w>": 7534,
  "होंने</w>": 7535,
  "होगा</w>": 7536,
  "होगा।</w>": 7537,
  "होगी</w>": 7538,
  "होता</w>": 7539,
  "होती</w>": 7540,
  "होते</w>": 7541,
  "होना</w>": 7542,
  "होने</w>": 7543,
  "होप</w>": 7544,
  "होम</w>": 7545,
  "होल</w>": 7546,
  "होल्": 7547,
  "होल्ड</w>": 7548,
  "हो।</w>": 7549,
  "ह्यू": 7550,
  "ह्यूमन</w>": 7551,
  "़": 7552,
  "़</w>": 7553,
  "ा": 7554,
  "ा</w>": 7555,
  "ाइ": 7556,
  "ाइंग</w>": 7557,
  "ाइंड</w>": 7558,
  "ाइन</w>": 7559,
  "ाइल</w>": 7560,
  "ाई</w>": 7561,
  "ा।</w>": 7562,
  "ि": 7563,
  "िंग</w>": 7564,
  "िए</w>": 7565,
  "ियर</w>": 7566,
  "िया</w>": 7567,
  "ी": 7568,
  "ी</w>": 7569,
  "ीक</w>": 7570,
  "ीज</w>": 7571,
  "ीन</w>": 7572,
  "ीम</w>": 7573,
  "ी।</w>": 7574,
  "ु": 7575,
  "ुअ": 7576,
  "ुड</w>": 7577,
  "ुर": 7578,
  "ू": 7579,
  "ू</w>": 7580,
  "ूं": 7581,
  "ूंगा</w>": 7582,
  "ूड</w>": 7583,
  "ूम</w>": 7584,
  "ूल</w>": 7585,
  "े": 7586,
  "े</w>": 7587,
  "ें": 7588,
  "ेंगे</w>": 7589,
  "ेंट</w>": 7590,
  "ेंटली</w>": 7591,
  "ेंस</w>": 7592,
  "ेंसी": 7593,
  "ेंसी</w>": 7594,
  "ेगा</w>": 7595,
  "ेन</w>": 7596,
  "े।</w>": 7597,
  "ै": 7598,
  "ॉ": 7599,
  "ॉट</w>": 7600,
  "ॉम</w>": 7601,
  "ो": 7602,
  "ो</w>": 7603,
  "ों</w>": 7604,
  "ोगे</w>": 7605,
  "ोल</w>": 7606,
  "ौ": 7607,
  "्": 7608,
  "्या": 7609,
  "्यू": 7610,
  "्र": 7611,
  "्री</w>": 7612,
  "्स</w>": 7613,
  "ज़": 7614,
  "ज़</w>": 7615,
  "ड़": 7616,
  "ड़</w>": 7617,
  "ढ़": 7618,
  "फ़": 7619,
  "।</w>": 7620,
  "ঁ": 7621,
  "ং": 7622,
  "অ": 7623,
  "অনেক</w>": 7624,
  "আ": 7625,
  "আই": 7626,
  "আইপ": 7627,
  "আছ": 7628,
  "আছে,</w>": 7629,
  "আছে</w>": 7630,
  "আপন": 7631,
  "আপনাকে</w>": 7632,
  "আপনার</w>": 7633,
  "আপনি</w>": 7634,
  "আম": 7635,
  "আমরা</w>": 7636,
  "আমাকে</w>": 7637,
  "আমার</w>": 7638,
  "আমি</w>": 7639,
  "আর": 7640,
  "আরও</w>": 7641,
  "আলাদ": 7642,
  "ই": 7643,
  "ই,</w>": 7644,
  "ই</w>": 7645,
  "উ": 7646,
  "উপর</w>": 7647,
  "এ": 7648,
  "এ</w>": 7649,
  "এই</w>": 7650,
  "এক": 7651,
  "একটি</w>": 7652,
  "এখন</w>": 7653,
  "এট": 7654,
  "এটা</w>": 7655,
  "এটি</w>": 7656,
  "এবং": 7657,
  "এবং</w>": 7658,
  "ও": 7659,
  "ও</w>": 7660,
  "ক": 7661,
  "ক</w>": 7662,
  "কথা</w>": 7663,
  "কর": 7664,
  "করতে</w>": 7665,
  "করা</w>": 7666,
  "করার</w>": 7667,
  "করুন": 7668,
  "করে</w>": 7669,
  "করেছ": 7670,
  "কল": 7671,
  "কা": 7672,
  "কাছে</w>": 7673,
  "কার": 7674,
  "কারণ</w>": 7675,
  "কি": 7676,
  "কি</w>": 7677,
  "কিছ": 7678,
  "কিছু</w>": 7679,
  "কিন্ত": 7680,
  "কিন্তু</w>": 7681,
  "কে</w>": 7682,
  "কো": 7683,
  "কোন</w>": 7684,
  "কোম্পান": 7685,
  "ক্র": 7686,
  "খ": 7687,
  "খন": 7688,
  "খন</w>": 7689,
  "খু": 7690,
  "খে": 7691,
  "খেল": 7692,
  "গ": 7693,
  "গে</w>": 7694,
  "ঘ": 7695,
  "ঙ": 7696,
  "চ": 7697,
  "চ্": 7698,
  "ছ": 7699,
  "ছি": 7700,
  "ছি</w>": 7701,
  "ছিল": 7702,
  "ছিল</w>": 7703,
  "ছে</w>": 7704,
  "জ": 7705,
  "জ</w>": 7706,
  "জন্য</w>": 7707,
  "জান": 7708,
  "জিনি": 7709,
  "ঝ": 7710,
  "ঞ": 7711,
  "ট": 7712,
  "ট</w>": 7713,
  "টা</w>": 7714,
  "টি</w>": 7715,
  "ঠ": 7716,
  "ঠিক</w>": 7717,
  "ড": 7718,
  "ড়": 7719,
  "ণ": 7720,
  "ণ</w>": 7721,
  "ত": 7722,
  "ত</w>": 7723,
  "তা": 7724,
  "তা</w>": 7725,
  "তাই,</w>": 7726,
  "তাই</w>": 7727,
  "তাকে</w>": 7728,
  "তাদের</w>": 7729,
  "তার": 7730,
  "তার</w>": 7731,
  "তারপর</w>": 7732,
  "তারা</w>": 7733,
  "তাহল": 7734,
  "তাহলে</w>": 7735,
  "তি": 7736,
  "তে</w>": 7737,
  "তৈরি</w>": 7738,
  "তো</w>": 7739,
  "ত্র</w>": 7740,
  "থ": 7741,
  "থা</w>": 7742,
  "থে": 7743,
  "থেকে</w>": 7744,
  "দ": 7745,
  "দ</w>": 7746,
  "দি": 7747,
  "দেখ": 7748,
  "দের</w>": 7749,
  "দ্": 7750,
  "ধ": 7751,
  "ন": 7752,
  "ন</w>": 7753,
  "না": 7754,
  "না,</w>": 7755,
  "না</w>": 7756,
  "না।</w>": 7757,
  "নি": 7758,
  "নে": 7759,
  "নেই": 7760,
  "নেই।</w>": 7761,
  "ন্": 7762,
  "ন্য</w>": 7763,
  "প": 7764,
  "পড়": 7765,
  "পন": 7766,
  "পর": 7767,
  "পরি": 7768,
  "পার": 7769,
  "প্র": 7770,
  "ফ": 7771,
  "ব": 7772,
  "ব</w>": 7773,
  "বর": 7774,
  "বল": 7775,
  "বা": 7776,
  "বা</w>": 7777,
  "বার</w>": 7778,
  "বি": 7779,
  "বিনিয়": 7780,
  "বিনিয়োগ</w>": 7781,
  "বে": 7782,
  "বে</w>": 7783,
  "ব্য": 7784,
  "ব্যব": 7785,
  "ব্যবহার</w>": 7786,
  "ভ": 7787,
  "ভা": 7788,
  "ভাবে</w>": 7789,
  "ম": 7790,
  "ম</w>": 7791,
  "মন": 7792,
  "মন</w>": 7793,
  "মনে</w>": 7794,
  "মা": 7795,
  "মাত্র</w>": 7796,
  "মান": 7797,
  "মূ": 7798,
  "মূল": 7799,
  "য": 7800,
  "যখন</w>": 7801,
  "যদ": 7802,
  "যদি</w>": 7803,
  "য়": 7804,
  "য়</w>": 7805,
  "য়া</w>": 7806,
  "যা</w>": 7807,
  "যে": 7808,
  "যে</w>": 7809,
  "যেমন</w>": 7810,
  "র": 7811,
  "র</w>": 7812,
  "রা</w>": 7813,
  "রি</w>": 7814,
  "র্": 7815,
  "ল": 7816,
  "ল</w>": 7817,
  "লা": 7818,
  "লো": 7819,
  "শ": 7820,
  "শ</w>": 7821,
  "শু": 7822,
  "শুধ": 7823,
  "শুধুমাত্র</w>": 7824,
  "শেয়": 7825,
  "শেয়ার</w>": 7826,
  "ষ": 7827,
  "ষ</w>": 7828,
  "ষ্": 7829,
  "স": 7830,
  "স</w>": 7831,
  "সম": 7832,
  "সময়</w>": 7833,
  "সম্প": 7834,
  "সম্পর্কে</w>": 7835,
  "সা": 7836,
  "সে</w>": 7837,
  "সেখানে</w>": 7838,
  "স্": 7839,
  "হ": 7840,
  "হব": 7841,
  "হবে</w>": 7842,
  "হবে।</w>": 7843,
  "হয়": 7844,
  "হয়,</w>": 7845,
  "হয়</w>": 7846,
  "হল": 7847,
  "া": 7848,
  "া</w>": 7849,
  "াক": 7850,
  "ান": 7851,
  "ান</w>": 7852,
  "ানে</w>": 7853,
  "ার": 7854,
  "ার</w>": 7855,
  "ি": 7856,
  "ি</w>": 7857,
  "িও</w>": 7858,
  "িক": 7859,
  "িক</w>": 7860,
  "িন": 7861,
  "িনিয়": 7862,
  "িন্ত": 7863,
  "ী": 7864,
  "ু": 7865,
  "ু</w>": 7866,
  "ুন": 7867,
  "ুন</w>": 7868,
  "ূ": 7869,
  "ৃ": 7870,
  "ে": 7871,
  "ে,</w>": 7872,
  "ে.</w>": 7873,
  "ে</w>": 7874,
  "ে।</w>": 7875,
  "েখ": 7876,
  "েখানে</w>": 7877,
  "েছ": 7878,
  "েট</w>": 7879,
  "েন": 7880,
  "েন</w>": 7881,
  "েয়": 7882,
  "ের</w>": 7883,
  "ো": 7884,
  "ো</w>": 7885,
  "োগ": 7886,
  "োগ</w>": 7887,
  "্": 7888,
  "্ত": 7889,
  "্ত</w>": 7890,
  "্প": 7891,
  "্য": 7892,
  "্য</w>": 7893,
  "্র": 7894,
  "্র</w>": 7895,
  "্ষ": 7896,
  "ક": 7897,
  "ખ": 7898,
  "ત": 7899,
  "ન": 7900,
  "મ": 7901,
  "ર": 7902,
  "લ": 7903,
  "વ": 7904,
  "શ": 7905,
  "ષ": 7906,
  "સ": 7907,
  "ા": 7908,
  "િ": 7909,
  "ે": 7910,
  "્": 7911,
  "₹": 7912,
  "₹1</w>": 7913,
  "₹</w>": 7914
}